node {
  name: "x"
  op: "Placeholder"
  attr {
    key: "dtype"
    value {
      type: DT_FLOAT
    }
  }
  attr {
    key: "shape"
    value {
      shape {
        dim {
          size: -1
        }
        dim {
          size: 100
        }
        dim {
          size: 100
        }
        dim {
          size: 3
        }
      }
    }
  }
}
node {
  name: "sequential/conv2d/Conv2D/ReadVariableOp/resource"
  op: "Const"
  attr {
    key: "dtype"
    value {
      type: DT_FLOAT
    }
  }
  attr {
    key: "value"
    value {
      tensor {
        dtype: DT_FLOAT
        tensor_shape {
          dim {
            size: 3
          }
          dim {
            size: 3
          }
          dim {
            size: 3
          }
          dim {
            size: 32
          }
        }
        tensor_content: "K\272\342\275\202\334\377\271&\343\026\276\246!\246\274\0177\347=/\374\236=\030\243\201=t\230h\275\337\021F\275W\301\334=\314Q\027=eM\037\2757\002\305<\340\312\n\276\351|\362=\240I\256=\r\326\324\275\237\371\373<\312W\264=?#\337:\0360\r>\304o\3659r\007\321=\3355\007\275!\262|<\346$\331=\314\352\370=\244\023\365\275\367\373\354\275\347\256\233\275\263\352\256\274\005\271/=\250$\024:}\340\276=\002p\005\276\0174y=i\265)>J\254e=\233@1<\226=\226\275q\325\000>2\017\271\274A(;\275]}\007>\353\364\271=\310\367\252\275\357\017\212=(\tQ\275\212\276\337<\225\3202\2755,\002\276Aj\220=\265\021\216\275V\261\t>xf\374\275\351\271{\275T\020\265\275\240\010`\275A\2110\275\tUy<t\231\364\275\3319\r\275\\x\346\274&_\347=\377\311\354\275h;\210=\243\032\030\276C\207\327=\230b\301\274\204.f=T\327\260\275\342\354\263=\252=\033\275\013\206\200;\273\213\r\276\217P6\275\302;C>I\254\021\275\303\265j=\366^+\275\302\006\t\276\326V\243\275\255W\222:!\037>\275\031\"^\275#g\243\275<S\235=x\025\006\276N\316s=\025\362\030\276S\273\266=\004\377\261\275\235]\201=\341\321/>\211\372\350<$\274\010>\261H\226=\340\366\307=\255\221\314<[\234z\273]\333\202=\007\373C=Q\215\017\276\035\251\005\276v\034\026\276\216\024\370\273V\314\371\275\3073\016\276\342\234\002\275%N\213=\271RU=\210\027\323=v\336\201\27502\337=\336\344\351\274\206WR\274\326\345)=\357\303\232\275&6\270\274(dc\275)Gs=\022~\304;\374@\203=\033\273\n=\2159\341=\235p\203=\256\354\226\275u\345\331<-\317\265=\210~\262\274\315~\214\274\364\237\233\274\223Q\277=\266R\315=Y\255\t\276\025P\326\275\303\233\230=4\260\327\274@|l=``\221\275\t\273\362\273y\205\342\275\\u)<\204\002\273\275\275l\344\275\325\234\201\275\217\327\252\275\200\235\205<e\357\263\275FC\r>K\352D<\361\022\352\273q$2<\347\246%\276\305\225\003>\t\016y\274\361\263\353\275\021\022\233=[\360:=\302\351>;S:\220<nh\305=R\001\010\276e\270\336\275q\003\035>\201\270)\275\365a,\276p\376\277\270\\\347\262=\331\'\252;\007|\336\275\347\244\305=\356/A>\347o\204\275\220\2275=,W\214\275\372\201\001\275L\251\250\275\3460\013\275\335\210\324\275\314\036\241=\250Y#>-\256,\275<z\207\275y\250B=\004\306\340\275~=\234=\304\276\364<\001\230\200\275Mm\374=\324\315\216\275\275\017\022>\n\252\356\274M\025D\275n,\265\275\312\002\014=\022pl\275\370t==XgY\2758\252\201\2741\327\355=\r\270\032=7\"%=\236 \026=?q\244\274\255\344e<\002n\242=\026\213O=h\373?\275\260\340\316=\371\237O\275\316\206\256<\247\370\213\275\301\243\376=\207U\302=\0040\273\275\003i\235\274\221\025\346\275q\205\246=0O\275\274\r4\266<\251\010\255=\274\001\307<\246\247\352;V\022\271\275}\323\313\275o\332\370;bs\\\274|\336T\275\235/\034\275H%\004=\316\257\267={\240U\275\356\363\220=\026\010\337\275\325\340\242=\303\016%>\332\350\251\275\210Se=\300\020\260\275\362\007Y\273]\034\237\275{\244v\275\376\014X=\245\273\342\275\023\274\217\275\245_\254:\337r\031\276\330~`=\343\263\n\276\332\272\344<d\205\357:\361\007\267=S\313\013\274\227\025\003\276\317x\343=$p\254=\225\341a\275f\303\230=\362%6=\342\217\203\275-r\025>&\231\002=\216\224\226\275_\020!\275\270\023\327\274\370\262`=\221\014M\275\203n\342<\211\201Z\275H%\325=\323J\342=r\237}\275\215\264\022>\227b\244;{V\351\274\034\177\316=\177\334\263=\370(\005>\256\025\226\275@\351\257=%ar=9\325\177\275i\005B\275\'g\002\276tn\355\275?\002\357\275\342\310\314\275\330_\220\275%\216\322\275\200\242\233\275m\307\344=\244\373\004:\206\213\347=n\310\334=\232^\213\275\000\"\336;NwG\272\205\354o=\210`M<\241\344\017=p&n=!`\376<\370\200\357\2746\220}\274\303\034\033\276\210\231.>\2504\345\275\222\002\206=\355\242\013\276\0102\242\2759\337\215=V\360u\275\177\033\313<p\276\363=F\263\260<\2539x=\244\262\366=\202\004\313\275\326\033\017\276EF\324=v1\243\275\215~\246=\311K\300=\203\270\357=\345^o\275w\321\205=\031\216\000\276uU\025\275\362\014C\275( \373\271q\206@\275^M\251<\372\033\032=\357\237\354<\207\020\026\2760.\300=\246\200v\275\345\265N\275E\263\244\274\213\304\207\275\354\210\246\275[,\341\275\256\276\261=2s1\276B\n\313\275\372\325;\2743\220\247\274W\026\334\275q*\032\275\034\013\211\275\356\301I<B\265+=E\'\306=b4\346=Q\276\343\275\300\364\016<\376\237\001\275\202\302\320=\265\332\240=<(\267\275%\010\306\275\0175\204\274\344\233\253<\3339\357=\3574\267\275\355m\276=\215uT\273\330\365\003\276\267l\375\274\242\275\022\276\313\305\351\275\005\036\206=>\031g\273\234:w=\004\303\341\275O\t\"\276\236\024\013\276\354w >CY\240=\364\030\333\275\237\207\035<\324\303{=\231\211->\265\335Z\275\0300\272=\332\201\215\273\000y\367\275\360\210\220\275\374\372\213\275\213I\025\275\320\262\212\275\036\021A\2744K\303\274\356K\225=8\215\245=vK\276\274\213\017/=r\320\344\275\010U{=\314\307y=\007\304\333=\236e&>\311y\205\275-1\204=C}\006>\336\342\331\275\271\331\005=T?==\031\306Z=C\360\266=\325\003\311=\345%\353=\315$5=Y*\340=\364V.=6\357W=\253\252\360\274P!\301\274\243\365\026>\023\271\023>\014\276d<R\230\204=5\373\257=\203\020\256\275L\000\366\274k\177\341\275\334\2242<\2252\205\2750\256\273\275\242\313\370\275\262r\220\275\006\220P=\355\334\027=C\314\257\2753A\361\272\t\336\314\275\375b*\274\177\374U=&\262\200<5\205\'\275\267P\342=\252\177\n\276\346:\274<\273\231\243<R\305\004=\271 \'\275\276\260\303=w8V\274\336\353\325=\334\270\017>\373Y\312=\232\363\024=WF\023\276\210\371J\275-\022A=0&\320\274\364]\331<Z\353g=f%\313;\271|\004>v\006\n>q\364\331<\323\202\325\275J9\225\275/\251\312\275\216v9\273\023o\014=+1M\275x\207\244\275\342\277\264=\331\307\241\275\264\303\226=>\225\367=\021\362:\2751H\t\276\3604\301=\225\227/\275\235Z\324\275\214\367\274\275\240\241\372\275\350\272\363\275{\220\244=\030\204\344=G\3151\274\234\244\020>m\nE=\276\336r\275\252E\250\275R\247\354\275\331\320\"=|\0210\2769\206\260<\\\261\265=O@\024=wN5\275t\351\036\273\223\2525=\035\222\370=\313rU;=I\003>\275\206t=\347\257\212=\276\253<\275p#\264=5\251\315\275\000\222\346\273\005\002:\275\223\354\331=,;^=Q\233q=:\242\007:1\261\r\274#2\001=&V\016=\203\226S=\265c\334\274\344\352\221=yC\035\2741\300\331=]C\316\275\343`\033=\217)\222=o\2242\276Q\220\267\274IF\006\276\237\275\003\276\367\231\004\275[\004\253\275\000\006\000\275\306\312\315\275HW\010=N\204\014\276Lc\220:\373\005R=\300i\022>-\024\273<\342\332\250=b\r\354\275\002Q\224<^\251\200\2758\303\221\275\307\022\210<\240\212}<\322u\003\275\272\234\344<\273\r6\275d\303-=\264\263\332\275UG\326\275J\0345=`\235\010\276\020\356\302\275\006\277\272\275\0021U\275\303\312.\276\3217\333\275\205\320\212\275D\372\307=!\245\310=;\323\007=;u\027>\002\220\303\274\235\303\225=q\373\245<-\000\027>\234\2561=G\342P\275\320\224\024\275R18=\364\252\304=4\233\327\275\037\365\035<\275q\006\276A\257\013>b\370P\2755T\253\275\235\321\312=nWY\274\271\332\200=\225\222<=\'j\004\276\335\272\014\275\002\356\236=m\031\022\273<^\255\27560\337\275\334V\225=\376u\347\275\322\026\203\275\203\"\262\275\353\300\327\275H}\020>\002A\316<\320\251\r\275\300\354\226\273\234\005|\274\027f\324=4,\032\276\210\270\034\275\252\234\377<M\373/\275\341hf\275a\204\222\275\235>\233\275\3607\256\275\324\271\020\273|l\220<\257\243\365\275\215\261\210=q\352&<i-\376\275\234~\243\275\nnI\274n\254\255;f*\351=Y\247\002\275]j\005>\322\307\330\275\230\307\267\275\362\364\030=Vm\342\275\010F\261=\246\177}\274\204q\000>\211\346C=\"\270\371<q\014\034=\246\344\224\275y\341,\275\"%\t\276\006\247\232=\032\207\256\275q{\020>\360\313\266=\2212\235=\253\232\002\2753\020\244\275\242\357\033=\016\306E<\217\033\245=6 \207=\221OI\275\022\252\272=\212F7\275ih\321\275\032\017\270=JU!\275A\364%=5@d\275\364=\324=\354U\014>\357x\002\275\000\017}\275\326\225\215=wM\313=\037\231\n>n\310\024\274\256\242$\276U\220\240\275\212\231\222\274\227\"\370=D4\360\275\370Z$>\353\265\t\276\336\264\202\273=/\244\275\205f\214<\200\375\224=\247\221\026>\002)\367\275\246\222\251<\260o\302=\244\025\357\275\337z\371=\350\270\233\273\366\220\r\276\\?\232;\030\262q=P7\001>\207h\326=\013\221\240\275\300\337\361=\337h\007>\356\2233\275\204,\223=o\034v\272\000\235\212<\370%E=\364H\375\274*\352\251\273\334`\377<\205\020\216\275 9z=\344\014\373\275K\211]\275\022\266\311=\252(\226=\240\306\242\273\303I\025>D\250r=%\206\371\275\226FW\275\344\200\306\274\327\007\206\275\007\332u=jH`:\360\334\315=\232\377\024\274\023n\242=\031\313m\275C\305\203==\262\304<\261\236\335<\3117\362\274P\317\373=\243\322\004\276\364\305\311\275\"\266\341\2740\231\207=\271\267\241<\217\227^\275\200h{;p2M=Z\303\346\273\342\376\234\274}x\010\276\035\372\364<\316\335w\275\227\371{=\263\205\030\276L`<=s\240\330<\377\036q=\t<8>\207\301\266\275L\223\236=i?\324\275\036\314\346\275\221\360\347<\245\204\247\275t\2374\275\247\323\227<\247\234\361\273b\373\334=I[=:\212\"\233<Ts\334\275\211\024\010\276ex\330=?\212\266<|\022\224<\302f\353\275\234\016\346<\0067\002\276kx\n>\364\300\240\272p4\317=\306p\273=o\252\275=\325\024\237<\370D\226\274\326(\310\275\245pT\275q\320Y\275\325\361\274=\001\245\n>\242\216\345\273\r\n\350=\0076\007\275\367\005#>\323\253\002>\271\311\247=g\344\213\2753\331&\275\267\311\233=\261\036\027\276sw\017=%\376\031\276\251YO\275G]\274\275u\366\002\276\262E\305\275X{\002>\361\357D<\247\203\031=\370\017\214\271\345\036B=\353\321i=\0109m\275\246A\344;\036\033\013>\264kK=\376\022\277\274\301\2534\276\222\324\210=q?q<\375\205|\275!\032\220\275R\2110\273\273~G\274n\235\257\275U\177\333=\030\275\314=\n\317%\276\264\345\000\276\330-\265;2}V<\277%\252=w\320\r>T\337\n\276<\306\363<N\311\312\2752\352\302\275o-P\275\236\031\353=\254\2363=\373\352\342=\301(\311\275\n\266>\274k\315\320\274\036\006->\277v\004>d\005\354=)\260J<q\310\021>\017\274A=\001c\323=@\235\313=\304\\\237\274\371\013\026>]\020\'\276Bxr=\350\251\324\274\344\3741=\330\236\301=\\\362\013\276\310\022\375\275\235|[;\324E\021<\3646\260\275\220\211\013>\220\243v=E\326\350=#\036\223<\355\245\310\275/\201\263\275\347gF\275,R\305=\362\254\375=d\364\220\274\341\315\013=\t\336\210;\300L\r\2737]\026>\"\246\320\274\247\000\236=b\260\022=B\005E\275#6\355\275\227\304\234=\317\322\277\275@;\003<n\372\222\275"
      }
    }
  }
}
node {
  name: "sequential/conv2d/BiasAdd/ReadVariableOp/resource"
  op: "Const"
  attr {
    key: "dtype"
    value {
      type: DT_FLOAT
    }
  }
  attr {
    key: "value"
    value {
      tensor {
        dtype: DT_FLOAT
        tensor_shape {
          dim {
            size: 32
          }
        }
        tensor_content: "\375\205\226\274c\357Q\275\360\274\343<NU\335\275\263T\230<ez\377;:\311\341<\r\217\236;R\366{=\024J\255;\345\270\327\274dI><z1,<\304&E\274\270^\255\275\204\310\217\274\355\272\330;?*\177\275\332\270r=\356\022\326;\360\227\236;\017\210\261\275wO\335<\324\300#;&$\276\271\372\032\000<\206\267w\275\325\237\215;\tYT\274(\021U\275\242\273@<M\341\323\275"
      }
    }
  }
}
node {
  name: "sequential/conv2d_1/Conv2D/ReadVariableOp/resource"
  op: "Const"
  attr {
    key: "dtype"
    value {
      type: DT_FLOAT
    }
  }
  attr {
    key: "value"
    value {
      tensor {
        dtype: DT_FLOAT
        tensor_shape {
          dim {
            size: 3
          }
          dim {
            size: 3
          }
          dim {
            size: 32
          }
          dim {
            size: 64
          }
        }
        tensor_content: "\250\"\222\275\225\326\217\275\027\032\320;\006\242\004=\273\336\240\273\357\204\273;\215i\305\275\262c\014\275\266T~\274B`m\275\353;#=\373\361\236\275\331B\034\275Lj\035<\005\270r\275}\007\317=U\330\210\275\332\3241=\3169\356<\345\365\320<#jQ\275o\213\030<\"\261&=j\311\006>\177\200\200=(I\360<\235\327k=\234\346\245;\005P\330\275Z\004\266=\247v\014=\245\315n\275,\361\333\274\373\362\327\275\356\361\273\274Z\371\366<\362&w=\337\316\233\275[\030 \274\373\013\345\274!Q\202\275q\374\367\274\013$\302\275(-%\275\361\327\306<B\020\006>\303\036\265\275uiy<\317\'\362<Q\030E<\301\274\354<\006\037\324\275 \226H\275x\020%<\272\276z=\2146o\275\010k\231=T\204\251\274rS\311<\261&\213=\246\227-\275\235X\354<\340@\r\275q\213^\275x\363\r\275xdu<Y+n<\"\355\306\275\377H\260=G\374\365=N\256#=\242\335\023\275P*\263\274\244\271\016\274u\007\230\274j@\203=\375\220\313\275\256e>=b\n8<\257\020\026\275I_\372\274\315[\016\273\353j\225\275_\010\217=\234\344\004\274\321\270\021=\2153\214\275j\251\022\275\302\376\024\275\266O\017\275&\021z=R\233\007\276\251\323\325\274v\202\252=&`V=\353\354L=\257\017\017=z\003(\275\014\222\211\275Kzv=\326\305\263<\005Yz\275c\261B<5u\261<\267\234\000\2751\255\217=I\330\354\275\212T\334\275\211\263\231\275fh\272\274\227\233w\275v\331i=hZ\'\274d\331\274=\2400\340<\210\345\035<\243K\337\275\017\201\275=3\216\211\275\344p\r\275\321\236d\273\256\006\225;\357\244\336=]H\320=\243\301\230=\004>;<\357\252\235\275\274\006\275=\371H\241\274\007\360\244\274O\020\010=t\247\372=\277\275)\275)\203y<\210N\020\275\201\224%\275\300\341[\274\331u}=\344\321\366\275\223\206\004>\256\243\263=\213\247,\275x\347\313<\0324 =\236\230\030\274\027\275M\275\026+\302<)\234\232<Y=\210=_4\361\273\343\340J>\267f\352=\224\2126=\230c\177=#<\320\273\316jo>fv\311\274\354C\244<\317\305$\275\240J\344\273SW\315<\301\260c\2759{\223=\222\270A=\233\335\331=\014A\215=\2315{=o\230\245<\035\265N\273\266H3\275\257\374\224\273Z$\235=\364?\340=x\256\017>\237\\\247\275\336\347\226=\365\214\002>\'\337\\\273\324\230;><I\001=\365\243!>X\034B\275h\322\026\275u\304m\275J\253h>G\037z=\321N\032\276\305g\246\275\367\030\347=W\234\022<|\032L<\201:\342\275SQ\237\275&\3331\275\331\200\240=E\367\254\275at\235;\223\246\001=F\211\215\274\216q\331;Q\231\246\275\245*\342<\272D\217=\236\257\217=&\271\306\275\375-n=\366t\222<C\244\022\275\023\375\213\275\2116y=t\313X\274jG\001<m\365\244<\215a/\275\250\255.\275@\027\215\275\023WX<\003}\027\275\222\263\035\2722\315G=\367\256\331\274)\330?\275\251\277X\27554\372<\266\305\211<*\235\";<\203W=.\032\231=\342\'\220\273\334\305\240\275j\226\350<d\233;<\001\007\234=A#k:\305|\312\275@\231\003=U\276\200=F\022\255;\222\332\266\275\006{x\275\304q\271\275.\272\211=1\003\344\274\\\236[\275\304\227\317\275\257#\006\275F?k=m\025\272\275I@\316\275\334\010x<\316Wj\275IB$\275vT{\275f\033R<W}\010=\037\322z\2752e\261=(\264_=\261s >o\007\013=\213|\364=\371e\263=\323\024\317<\337xZ;+\362\265\275\327K,=\312\234\324=\216~\355\273\3133\241\274\005a5=\202\340\340\275\240\365!\275\212\226\371=\262\276\014<\300Wv:\2032\000>\221\302*\274@J\240\275\003\251\020\275\203@8\275\217 \023=\205\273C\275\337\240\223=k0\031\273\252A\252\274\261\025\265\275\317\000\016=W\263\363=\356\2011\275\304h\007=W\316\261;K<\202<\275\000\201\275\304mf=\372\314\335\275b\010A\275\266\n\322\275A\361\324\274`m\217=\364.\202\275\2616\353;}\354\323\274\225\362\275\275\"\002\026\274|vq=\374\224\277<\336L\332\275X\361\215<\270M0<\276F\223<%\025\212\275\224so<\262\330\365\273\222\324O\275\203\022\366=Z\035C\275\342\253\034\275\026\253z=\350*\037=;\220\264=\347z\335=]\'\236=B\034X\274\233`\230=\265\007\">\344\366\243\275?0\213=\214\361\000\275\013\263\237\275d\302\003\276?_\023>\265\375|\275^\200\237=D\270+;7[N=*\213\270\274\333\022s=\241\353\332\274!\245\270\273\032\034@\275\252K\241<\301*\000\274(-4=\206\001\034=^\237\006=\037\021\204=\251)\001>X9\376\271\223\327\275<\321\020\020\275J\252\246=\252^\315\275\357\262\245\275\245\203\272=yL\362:f\367r\275\353\363\233\275\020\260\232<\3362\220\273v\200\204<\272\344\002\274U?\264<\264\214\307;g\270;\275\242\341!=\231*#<\236p\265=v}\204\275\345\301\361=\317\305\345<%&\244=\334\t\253=\367\357\362\274s\177\023>9\372\226<\331:\261\274\355P\330=\207W\331;`\364\013>\262\321\013\276\300T\002\275\306\201\277\273z\004r\275O!\273\275\001?\334=\010\032c\274\262;<=r\227\214=\247_\034\276\253\265\307=w\001\031\2768\341\217\275\\\256P=\301\034\203\274%\031V\275\003\007P=\023\354\336\274\010:|=\314@\261\275\211)2\275\256>\243\275\323\251\033\274\207\027F<\335\035\255\274\232:\n\275\222\245\343\273\001\006g=\357\307.=\214a\203\274\017\023\226<.\314>\275\23625>\206o\330\274l\325\204=\357\215\330\275\316m\206=\272\320\370\275\334C+\276F\306:=\206\025w=\321.y=@O\244\273\025\n\363\274\232\322\340<g\344\242\275<\210s\275\272\030\367<\314x\320= s\315=\207\246\256=\356\017v=\336\224J=\277\346%=\262\004\257\275\361\320\365=i\224\247:\240V\342=Q\020\026\276\313\310\"=\t\231\036=\340\270H>\325\365C\275\373\262\033\276\351\020\244\275=\361\002>\262E\226<\246n\333\275-\256\262=\021\014\257=w\214X\273\036Y\276\2756\302\'>\0238\014\276\020\001\004<ms\360\275\375\267\000\276\265\nC=\t\360\227\272\351\356w\275\342\260\\;#\006\020\275\013\344\205\273e\255\214<\252\177\323\274i\026]=\233\336\035\275\0258m\275\262\243\327\275\021G\201=xw\243<`O\246\274\335@\022>z\231\033\275\245(\237=C\034\334;D#\246<\236d\031\275\037\332\177<\007\034*\273\332\353\032=\003(2;T)\211<\372\201\376\274W\231\345=?\205\001>\330y\002\274C\243\255=V=S\275\310ZY=\220\211X=\206\006\350<\222w\201=\246\3318=\022dv;Y\226h\275G\222c\274\244k\245\275>\331#\276\306\305\025>8Q\371<c\344\032<\207[\250\275\365p\252\275\002\254r<P\022\347\274a)P\275\276C\330\275&Z,\275O\301\327<D\327\302\271\256\310\031\275\266\231\275=\273b\261\274Y.\241=\352\010\323<\007\365\000\2766\001;\275\306G\'\275\203\353\217=5\301\216<JP\301<\250P\007<bt\326\2745G\203\275\354\324U=\270.\217\275H\r\367\274\037O\211<jeC<HR^\275.x\231=\354\275\316\275\220;\035\275\310\344\333\274\0314\354<\330AA\274\334\241\177\275\345\325\237<+}\354\274\217x\225=\370\246\330\274\311<\377<\004\2646=\352/\177=\222\262\037=N\255\n=\323G~=\367\256x\275\313S\272\275\347H\220\275\306|V=\005o+<\300\353\220\275X\372\264=D\263\202=\241\272\025\275=/7=\257\032\254\274bjl=6{5\275\\\202\002\275\216\224\007\274}I\251\273R\277\356\275\000\267\257<\270\226M\275I\025\357;\010\3016=\363*\255=\325%\311\274 \352\235\275\310I\264\275\335\"\010=/\203\333\275\332\363\223=\237\230\375<\304hc;\245n\230=\331\216\313\274\370]\257=\361[\t\273=gN\275\027\366\234<\306u\344\275l\251\024\274\032\223\211=\036\216]\275i\023C\275dpn=\205\024\246\275\360\366\260\275\206\001y=\027{\332\274\364_\201=r%D<\221\332\271\275\215nZ\275p\326\274;\377:\253=\310\017I<\327\210.=\213/c=&\240\341=v\322\363<\'\016\216=\030\371\244=\016)\004\275\210\3206=\220\227\254\275\te\n\275\373*\261<]\036\322=\322\n\317\274~\243\264=\325^:\275\344<(\275K\241n=\2034\352:\215^\320\275\351u\275=56\270=L\004\233\274\377\215\025\275\013Dg\274\274{b=I\302K\275\025\006\217=\215e<=\222(\303\272\373\241\307\274\244\325u\275\270\342\\=\243;==\307\365\220\2759xS\275^\277+\275\272\220\264\275\352x\022<=\371\360\274\313\247\372<\317\241\013=\375\3421\275\373\013\243\275\177\r8\275E)z\275\373\225\014\275Y\201\216<\372\224B\275gGt\275<\372(\275\236c@=\242M\230<\352\317 <\320\246\023\273\372\305\203\275>\312I=\177\2178\275Z3\245=1\037k=\034\301j\273\357\211\250=FM\337<\251x\231\272\0258\020\275y1\351\272\230\304\014\275\327.\242=\371PI\274\301\205\202\275Xh\226\275W\202`\275C\"\233\273\275T8\273<F\244\273\t\376b\275\206(`=\212\251\371\274Z\251\345\274o\001U=\315\230\002\275L\010\234\274\241n\211<\227\267\001\275\337\342\000\2753\254\000=\227\306\245=\013\343\242\275F\376*\275n\370\177=\214\364\026=O}H=^\340\251=\364\333\222\275\231\302\021\2747\303^=\225\267\277\273FQ\233=R\231\237\275#,\233=\377\257\245\275\226t\277\274\001\337\227=\351\r\t=\262\306\330;\004\257\3759\230\305\t\275,\270\302=~j\200;\222\342\306\275\017\334)=\021Q\207\274\222\372\342\275\355\344P=L}\347<\266\247\231\275|i\263\275p\340\212=\006\017*\275\007\232\345<\317\332c=\245^\246=h\351\0049\274\232\321;\353\312\307=\346k\016>\320c+=\341P1\275\343\265-=#y-=&z\217=\274\321\323=h\003\312;\226Ju\275\253V(=\241b\274<J\330 >t\265?\275\233U\347\2750\036\211=\024oy\274\242h\213=\336\001\357<\236`\221\274\230\372\303<x\235G\275\020A8=.lJ<\2156 \274\346\274)<\333\317\247=\031h&=\223\352\377\274\003}\020=yMb<0)\025>\376\304r:W_\351=\244\203\361\272*AX=\232U\335\275\'Hl<\345\373\232=\274H\220\273-\304\352=/\\+>\217\202\322<\264\035\332<Zh\014\275d\201\270=\232\344\233=\350{\023>H\210\260=9\"2>\n\177\206\275\237\353\345=\365\224\270=\203\2341=ZOD<\205h\310=j\344\322=\307\2770=\347\374@<\\\017S<x;\025<\306Q\232=\210\003\014\275\357^K=8\3212>\266\315_=^\216(=\247\206\300\275E\356\234\275?\325\227:\333J\216<\231\001\336=\367\"\244\275\333\322x\275\375d;=\213\003!>h\207<;TS\251\274\215\342\364=#\270\366\274\215a\024=U\305\226\275\371\\\235=5,\006\276K\301{=\002\344\272\275\030\022\242;\010\326\261=,\316^\275\277\027\203\274*\252\007\276\330\336K\273Lsh\275t\371\240\275\2541\r>\ro\246=\367\372\204=%\217\324\274\312\244\372=@\201\247\274\220\302\030>th\301\275\260\037g;\005\353\362=\031\024\317<R\001T;\204\267\006>\020\336\323\273\212\251\351;U~\210=\211\032\242\275\344i\242\274x\353\255\274\333\323&=b\342\303\274\345\022\375<\313\352T\275y\367z\275\257\254y\275\032pX=^\002\030\274{\371\246=\"]\243\274\341o\231=\253y\246=\272\274w=\377\007\302<\373\r\007\275E\316\224\275m\370\234\275\206\014\245\275\365$\002=T\325\003\275\224\241x\274\224\357\273\274\222\003\242\274\000b\223=\216\310D=\305\237\272\274+\251\346\274\204\367\245<Y\006\343<8?\004\274JUZ<\337dF\275g\264\250:\236\335\207\275\367\235\245=.\017\262<\303\035\213=\203\372\034<HO\244=\206\330;\275E\375f=\264W\220=s\023!=6\347\001=r\346\210\275H\231Z\275~\274\245=\022\252\257=!\263\005=v\034$\275\302\375\372<\276\177\240\275\302\371\235\275j\032L\275W\235\020<&\024\201=SG\337<\202#\006\275\270k;=\002ch=~L9\275\257\\K\275\232\370=\275\r\265N\275\013:\022=\210w\346\274\023%\300\274\304\247d=\367\222]=\374Y]\275\376\217\237=\037\314\t\275\206\324\267\274\275V\370<\236\325\"=\322#j=\277&I\275-\002g\274\020\236\252\275\005\366\376<\356\246i=M\312\217= [#=N\370\343<cQ\344\274W\2151\275\014\027\207=B\000\366\274g\216Y\275m\207E=\323u\036:r\244\264\274\311u8\275q;\013<\376\204s\274]r(\275\303\203\013\274\365]\326\275\210\226\276<\260\221\305\275\006\264\021<9\341S\275\226RW\275\020\345\217\275%>\350\272\215\257q\275&\377u<\234g\231\275Sm\331\275\266^\265=\323\353\211\275\032-@\275\234\032\224\275\366D\256<\310\"[\275@\236\031\275\273\027f\275\211\216r\275\316\257\322\273\257\301\244=\200\213\247:\233\2532=\217\224J\2754V\226\275\206\017\262;\366\0040\275=g\244;\254\220m\275\027\333\225\274\374U\237\274v\260\323\275\2776@\274B]\222\274w\230\232\274\006f\211\275\347\003\\=\222k\214\274a\270t=\256\277\226\273:n\270=\334\010\274;\351\033\265\275<\224\314\275/\265\364<\2304T=\222\304\224\273\341\343\024=\032sS\2750\000\266\275_\341D=\3547A=\024\300\\=%\262\360=\322\177c\274\216\232@\274\302=$\275\303\023\007=\235L@\274\003\3752\275z\231;\275\361\236\314=\366\207\216\275\261\344\276=\025`\242\274*T\226=\226\220\375<\033#\324<e\263\277\275\320\317\030\275\027\255K\274\240\232\267\275O \275<^\016\264\274\021&\251=\343\002\325\274p`\223<\275J\275<\006\244\316\274\366\017\214:\032\244\206\275X*\272=\034a\035=\326h\211\275\353\271/<t\343\373\275\243\246m<\203\233\035=\253\030\323\275\340)\020>\t^\210\274\246(\370\275s\220\003>\341m&\276\262\247\262=\027$\332\275z\377\"\276D\306-\275\216O\253<\224KV\275@\372\005\275E&\301=\377r \275jst:\303>\261\275\'a\227=\001\226\277=\305\346\301=Z\367\261\275\237\342w=\350n\r>\263\227\247=o{4>\362e\0169\345\305\227=1I0\275<x*>\372l\217<_\272\204=\361\276\327\275\214\277\337=-m\321\275\026\354P\272.\010\330=\034\273S=\010\001\007>\'\237C>\215\220y\275\003w\212=\352X\025\276\'\216\343\274\260;\032=\342\002\264=H\346X\274\336\311I=\334o\020\273\352\360\344=]\356\222<\223\224!\276\032\205\031>x\026^\275Z\351\274<\353\024\265<\211\315\211\275\352Y\257\275S<\276=\232\273\236\275\254<E\275/b\225\275\257\322\020>y\214\244\275\004\211\227<\026s\324<\354\356 \275\353d\207\275Y\313\214\274\023\014]\274\034d\362;\004h#\274j,\344<\355\317\215=\031\202i=\177\263{=\345(\213\274\220Z\t=\320\223\362;\327O\"<\230\024\351\274|6\212=L\376\200\275D\305\272\275\rf\376<\362=\027=@(\203:\302\2479\275\224\242S=\017~l\273Z\256\311\274\010w\246=;Bw\275\003\367(=\245\025\227\274X\221\205\275\334\371q=\254\250\201\275\242o\334<\\0\262\275`%\206\275\366\261\332\275\006\236\300=r;\023<q`\023\275\007<l\275u\226\231\2740A\n\275\031ke\275&Z/=i\007\033=\277\200k\275\217q\251\275\366\327Q\275%\\\035=9\306\244<\224Q\226<j\3339\275U\023\271<\010\002\275<AR\233\274<\267\313<\355\251U=u\200\020\275Q\255\330\274e\217\250=\337\214>=\003\215\327<\001\214\252=\302A\356\275\'\2549<7\226\323\274\\\362\027=[F\251\272<\375X=\372\305Z\275\313\327\335<\374\000o<\316\372P\275\225\247U\275#\033\227\273`\362\212=|\223b\275\274\020\206\2756E\337\275[\\\327\275-x\216\274\037\211\320\275\227\273\211\275\257D@\274\001\017\210\275\362\363\262<\234l%\274\"\010\207\275\210\302\r\275\"9k=\243\266*=w\307F=\264\347\302<\265\255!=\017\016\351=\204\221\017=\344+E\275\341Y\330\274D\2445\273\307\034\303;\025\341\325\275\263\027\340\274\207\257*<O\313\006=\261\277\242\275&\023Z\274}Ty\275\356=\031<a\316\032\275_Q\252<\031\234\034\275\243\027\225<\305\223\022;\365\032)\274\220\301~=\027r\271=\025\021\312<-y\251=U\333q\274\014,\254=\345_\201\275\023\014\275\2749\302r=\010\205\260:\225\351T<\302\376\251=u\025\366<\n\310\\\275\317L\336\275\270\312\214\275\200\337\312=\034\375\257<K/\351\274\331\322\031=\321\272\344\275\266\335\026\275\312\201\177=M\200\236<\t\023#=\212\240/=\346#\252\274\036`:=m?^\275\230\205\'=\316\353\250<2\264\276\275\020\321T\275\367|\005\275\256\222m\275\215 \305\275\247E\205=\357\375\215<\270\016+=\t\\\257=3\036\204=[\2530=\277w2\275\237\217L=\016\350\266\275\311\t\201\275\372\351q\275\371\005\221\274I\361\004\274\260(\233\271\334\351\340=\030\221^\274\007Z\220=\245f\263\275\036\224\"<\213In\275\350!1=\n[|\275\266\222\344=\303\225\022>(V\357\274\335I\345<\227\316\207\275\tH\245\275\307\301\025>\333\220S\275P}\251<\321\031\033\275\202\nw=\376\200\244\273\306y$=dH\232=\373@\305\275\242i6\275\316\2706\275\004\247\020=\264-]=B\343\266\275v\244\212\275\2016\326<\236\023+=\"\227\005\275\327\376\336==<\251\275\261\217$=3\361a=\352\250\302;\337\302\202=Y}\266<\332\206e\275dk\203\274d\314d\275\304\001\372\274\243R\272=\025\242\276=|\370\265<2\204\220<\010\213\006=3\215\231=\231c\"\275\334\267\022=\320\031^\275\035\361\013<\206x\323<V:c=\004`\340<\32076\275\37620=U\264\004>ue\023=\371\326d<~w\342={\210\013\274w\247\'=o\311\215\273\260&\343\274\274\002x\2759u4\275Q<Y=\302#\244\275\006\311\016\274\307X\214\274\261\004L=\2221\177\275\320\236\234<\r\034\021\275\014MO\275\266&\221<\362\353\302<\310\264 \275;\261z\275\331\216\326=d0\224=\026\200\'=<*\010;RL\243=\276N\004>\342>\200=\237\266i=\025\372\264=,\334\316\273?8\342\275r\277\336\273\013~\212\275\262\223\214\273]\371\236\275\337\034\257=\036\013c=\006\305\270\274\227hG<\267\006\245\275\013\332\242=\335\"\n=\262%\265\275hS>\275\034\317\276<\256k\300\274k55;\317\253\013=\336\250\371<<a\037=\202.\026\275\274:\223\274\244\002v=\000\013\270\275\316#\203\275\016o\214\275\033\016Z<K\237\335<\227C\213<\334\234X\275\262\220U\272\215n4\2752\251\231=\312N\314<\265\216\010\2757\367\030=Rz\207\275\335\264\212=\222x\\\274@\376\225=\003\312\356<\346\205;\274\024[\006\275\274\307\020=\231\321\234\275\354-\261\274z{\244\274\020\303\213\275\001\265\252\275\362R\026=\004\003\250\271\021^-\275\ne\021\275\223\262$=\030\000X\275B\032\025<\024\313&=;4\033=\375\034\200<\323\316\365<\236\224.<V\204\000\275\331\017\035<\367-3=rL\027\275m\233\002\276\205\227\247\2757\201s\275\315\310\255\274\274\347\261\274\310\236\300<\235r\002\275\225\326\356;\025\302X=\032\255\344=\252Z\245;\273\251O\275\352\262\013<7\016\210\275\321\315\345=|\202\343<U\322\202<d+\246\274\203TT\275pP\273\274\325S\027\275j\037\256;9\253\021>H\037:;\030\375\243\275\312\363\006\275E\320\'\274IW\270=\222\301-=\177\310t\275YA\322\275\204\307\006=\007ue=\261\303\225\275r\0227=\235\302\247\275\023\273\216=^\230\207=\307\251\230\275-\2712\274\331\344[=8B\217<\245\202\245\275\253\260E\274n\271\260=\362\230\307=\347\374\"=/\316\252\274g\034\251=!m\253\275\202k\355=4\327\361\274a\362q\275\366\r1\275A\272\031\275\204\335\004\273f\354\021>\377\205M\2758\"b\275B\016\025=\0346\035\276\364p\022\275\022IE=uP\203<\367\373i=T*\204=d\010\267\275:\213c>2\352&\274h\nz<\375<\315\275\364\324\374\275\324a\350<\n\356\227\275\3606e\275\301\001 >W\240\215=~\321*\275l\2023\275\004\200\325\274\346\340\327=\330=\n<\014A\335=\253\320.\275\27166;ju\250<\254sy\275\355x_=\307_\277<\355Y2>\311v\340;\247\374\037>\007\027\242=\3427\016\273S\307\363\274Z\335Z<\340]\303\275\240fW\275i\247\202=\177\225h=\353l\215=ng\020>\003\214\242\273\213^>=\323-\204\275r,\373<)\3020=>\205.>I\206\201\275m\215\253<!\026\256\274I~\206=\001\351\231=\222\366\312\275\252\020\326=\207\342\006=\374\275o<\213\023(\275\001w\007=\237\033\206\274\203,\246=\331B\253; \034\203;f\005\364<\206Ij><\027a=\215Gz\275\310\005\241=!\352\006\276\253\2027\275vm\310<4\202\247\273\214*\260\275\234\332\325\275L#u\275\370\374_\273\355\361\273=\3175{\275\023\257\335\274\3726@\273\247\213\266=\270\301\240\2753\245\372=\260\003m=\343;\037\2756H\244\275^\373\263\275\233\006I<*|x<\302\0215\274\364\001\032>0\003\263<\306\265\273\275Z\200\000=\366\273\235=\177\'\211=\3124\302<\231\306\230\275\213\031\027=\260-z<<\001N=>\2654\275\346\363\006\275!-\352\274C9\350<\343\216)=>\276\356<a\240\271\2757\355\206=\321\207u=<\340.\275\001\023\017<\273\357\020=\275\354s\274\313\0149=c\273\361<\320\014\006\274Z\343l\275\254}\307=\355\177\202=\013p\306\274\264?\370\274s\322@=;Q\364\275\005Rk=F\021\234\275\324%L\275Y\354\023=\215L/9\027\251\254;\'\306t\275zq\342\274\362\227\364</\'\252\274@FL\275\342\242&>z\237H\275\347\307\256\272\356/\333\275\200\317\215\274\201h\214\275\356X\300<\306\220\333\273\355\241\321=\242I\234<\225\007\252=\"\316\372\275h?\311\274\005s\254=\345\013\023=\315\330\365=\211\"!=\n!\362:6\311\311\274\3232\027<~F\327=\004\372\205=y4\262=\000%;=\014\252\021>\374\036\347=[\320 =n2\350<s\205\t\275\243q`=e\004\327<#_\362=H\320Q=\301*\372=\272\322E=_;\270=\237\030\001\275\030\212\324\275{\213\273\274h\247\240=7\225\022>\273^\036;\322o\222<\270\272\235\275\254\301\331=#\266<\275\222\014\260\274\215o@=\327\227\341<8\273/=\327\200\\\275\r\261\316<\367\0241=\233\307\236=\263\210\214=\2316M\275\266Q\267;\036\265\331=\236\353\221\275\\c\213\275\341\301#\275\025\324F\275 Rv=[c\236=\006\037\260;\013~\266=\023\202\322=\350\335\344<\323h7<\212\267\233\275\266\211\033=\233|\235=\364\264\212\275<\321\266\275A\035\267\275\r\252\361<\343\2076=\020\327\302=\331[\227\275\267k\217\2745\330\370<X\003\231=\020S\272\275\t[\345\275\2569\323\274P\261\243\275vP\007=J\255*=\272\217\307\275\"m\237\274U\351\234\273\302\200\277=jD\357\274\214\365l<m\246\246=\226\024\345\272b\340\026=\356n\264\2751\376=\2756\246\262=NK\327\274[\021u\2731\035\223=\232\335@\275J\'=\275M\243L\275\316\364\202\275\014(\231\275\300\351\007\2752g\355<Qi\256=\017{\215\275c|&=$\225\232\275r\234\377=*\330H=\016\254\020\273\373{\372\275\207\223\341<\356\351)\273\347\346\251<\212vh\2742\340\216=\367l\277\273\351u!=\354Xm=\006\t\212\274$\306\332\273\237u\261\274,\345\315\273\204\003H\275\016\365\361\274E \222\275\210.\257\275\026\316\263=\371\254S\275hA\215\274\336\t\337\274\265VE\275\217\353\251\273q&S\275C\335\020\275\'yE\275/\371\237=N\'\227\2741\201d=IoB\275\211\372\001=\256\345_=?V\375\273Xh!=\003\014Y\273/\310\306=\212w\000\275\rR\222=\303%\226\275&\255\337=\322\372\227=D\001\365<\364\274E\275\330%\215\275\3356\375\274D\013\354<@\376\257=\366\306\367\274\375d\357\275&<\224\275\221\213@=\242N\336<G\245\344\274\335\324r=N\2351<\031)\006=xy\344<_\304l\273\315O\335=\265\222\226=4$\255=\355\226*=\325\230\254\275\254\2164\274{9+>\234\033\252\274T\337\210\2752\t\200=l0\r;\302-E\275ah\267\274A\332\022<O\247.\274~L\225\274p\"\246=e`U=\222#\346\275Yv\235\272=\376\025<\370\333\234\2758\362\370<\336\202\034\275\361\252Q\275\207\217\325=x\034\254\275pZ\205\275 gO<\211\247\260=S\016\330\275^4\236\275e\366\010=\264\353\250\275\275\354\243<\221{\276<\030:\375<2\224\332\275.p\337\274\3144\243=\344\022\234\275\025\214\222<\315\235\344=\"\3134\274\023\344\221<\006\276\032\275\377zB\274|\360D\2756r,\274Q\313\036<\244\"\264<\205\377\014=n\202:=\243\025\221\274\325 \250=xX\206\275j\021\304\275\324&\313\274/a\013=7#\n\275;n*<\022\017\306=@\374\212\275\235u\235<\360j\302=\351\215\021=\037\263\233=\006\2174;x\202:=\355u\343\275\323/\r\275!\340P<3\277&\275 \335z=\222\377*\275\245\267\220=\004r\352;\207lN\275\255\\\261\275\356\272\232=gta=\357Z\307\275]\263Y<a\325\250<\275\236g=\270\261\025\275\177\343\375;\252\337.\275\266\227\221=\242\363q\275\224\233\322<\263\344\223=T4\211=x\236V\274\232f\206<\271\215K=\300}\036=\210\275\377<\203\356\331=|q\027=\t\212\233<\033^\240\275\327\260<=\246=s;\300LA=\013\207#\276jO\324\274\315\030\205=\324V\314=\177\311\344=|6T<\320\303\017;({\313\273\266\207\226=Q\332\027=\321\306\027=C?\205=gZ\274\275\0200\\<\177g\225=\233\326\325\275e\271\256\275=\025e<\231;a\275C\017,=\'\372\266\275\356\241\233\275\215\351\261=\237\355\317\274{|8=\330Z\276\275\3736\272=\367\322\217<\0272\024<\003Am\275D\275\032\275\016\277\210=p\326\234<n%\021\275\222\005\234=\252\252n=\233VZ=\221\316\354;h7D\275H\366\303\275R\216n=\314\252\272\275\024[\272\274\310e\027\272Sz\230\274*\005/\273\234R \275`\221\030\274\311\030d=C\"h;!\365<=\304\310[<*7\235<\305\270H=\303u\335=LO\226=\355\224\255\275w\037;\275j$d=\007\374E<3\365\265=\326vi=\312p\373=\003\322t\274\233\310\024>\310\367\356<\302\261w\274e\205\214\275\2007\210\275\253\275\374;\n{\274<\301\230X<%\246\376=\310\332\017>I\017E=\314\270\237=az\357=\352TN\274\350\177U\275\003\026\317\275}\356\025=0\312\365<t\340\313=\306\362\r<b1\004\274\340\311C\275\203\003\211\275o/\231=AJ\250<\340\327\211<r\342\250\274\355i\r=R5\201<m\233\324=\335=\254:\221\020\343;\262\347\371\274\232a\316=L(\307\275F\332\211=A\255J\275\273\022\244;\251\314\241\275{\316\260=\036\225e\275 \205s\273\350X\371<6 \034\274\r?\212\274\321\362m\275\002\374\226=\253\346\303<W\356\201\275\234uB=\274a\205=Y\352\024\2749M\237=)\322\206\274>1K\275\001\234\256\275]\300\213=\323\032\030\275+\021\254<\320\324\350<E\\\031=!e\335<\245\207\246=\340\244$=\342A\373\275x\343c=\213\227<=\371w\231<\301\334\236=z\331\337<\322\033S\275\342`o<\027$\\\275\022\n\276\274\211\215\301\275\350\223<<\347\360\324<\201a\246=\262\007\215=\277\n\306\275\005z\235\272p\267C=PP\033\275Xv_<\224H(\275f\313.\275\267\020\023\275\352\317\336\275\211\220\034=\203Q\267\275\261\027\"\2756d\300\274\351\352t\275\327\245\007\276\202\330\022=%:>=\257\302\227:\3415\027\275\262\317#\274g\025\010\275s\021\247\274o\346@\275\035\0353\273\310\225J=X\007\005=h+\322\275\256\306*\275\226&\275\274V\023\325\274\005\207~=\336\320\232=_&\250=?\020u\275\276\236\363=\304F7\275\327!\036\273\030E\246=\371\357\020\275E=@\275\006\032j\275\322\305\326;\263uH\274\010\205\357\273B.t=TTS\274\362\352$=\200Nv;K\272\203\275\010\277)\275\300\331\250\275\020is=\272{\207\275\237\t\370;\'\262H\275To\344\275,M\200=\214\032\274\275\377[\200=d\227N=Q\205\376\274\220\nc\2756\345\276<\030\'\224<{T =\242\033.=\231\266W\274_\207\023\272\310\240i<\241\325Z\275\202\006\376=\0142\257=\343\320\346<\376\034%;g\034u=\363\257\330<@\377\271\275s\310\275\275\365\372\260=\037\357\224<\204\232\325\275B\376\021\274\243l/\274\230\317\253=L\304\222<\211n\177=\357\266\254\2752\254\022\275g\214\276=\236\330\215\273\004\374`;\242\3564\275`\310\003\275\2064\245=\220\256\213\2757,\377\274L\327\270=\340,\257;\215\001\316<\256\240u\275\315\311c\275\310)\034=~!\333<\tS\212\275\273\006?=:\320A\275\231\252\207=r\326\340\274\037t\272<\212\262\225\274}Vy=KOV=\036-.\274\002\t\255\275@\347\352\273\361\004n=\0244\217=\020\001\237\273\262\352\n<\345\263\337<\340&B\2741 \330\275\270u\002\275\030\004\207\273\343\276\273=B\362Z<\234\021,<\366\360q=\231\371g\275\367\273g\275kp\234<\001^\237\275\rk\230\275\310\032\250<\343\353O\274\300\032;<\2730|=h\247\313\274q\005\020=t\263\304;\262\235\372\273\361\254s=\200\275\00384l\254;\334(C<\334\355\204;\302\255&=\341\002\265<\341\226\300;\273\276\257\275\372B\210\275O\255\301<\030H\315<l<\r=\365\022\222\275\017-\034\275\271\250\267=<%\334\275\200\222Q=\264q\336\274\321\210\354\275\334J\322=\006\216\343=\002Y\303=\323\223\000=\301\256\017\276\021\356{=\033\265P\275\247\266l<\220{g=5)~\274\353\202\227<\0307L=\310w\230\273/W\261<\006\212\r;|\226\377<)/,>\221\317\003\275Un\236=\357\030G=\370+\216\275-J\030\275\265\353\374\274\322\205\325=G.\331=\"\212\260\274\322\036d=\212\220\237\275\360\006\302\274\0300\370\275\016R*=\275\2479\273Y5\215=Y*W\275\225\221\300\274\201+\333:\314\372g=G;\026=\326\354u\275\255y==\236\364\222:o\233\310<\263\324\373\274(\"\246\274\262\310!;\340\264\315=\233\340\242=!%\352\275\220\213\304<9N9=\200d\021\275\303\341\021=\261\006\350<\360V\254\275\032\331]<\341h\250\275&p\"\273\372}1=s\2107=8\231\032=i\n\204\275C\341?\275\261z\235=\240\026\010\275Wc\235\275\247@ <\312\337\005\275q]\262=d\266P\274\340\330F\275\245}h=\346\247L=b\316\247<\224,\323\274\307\320\321;\343\362D\273+\006\233<j\331\324\274\026\017\356=\3148s\275S\362\230\274r\300\304=5PB<j4\233\275\316\243\310\275u\267\247=\213_B\2750M\337<\010\211\005\275\312\235/=\353\202\302\274\2462\244\274\253\244A=\221Wv=9\215\"\275g\273\235\274\260\332%=\317\340\022=\364\320\025\275\275%_<\377\006\021=?\363y=\366\216\253=z\302\n\275\375\224\214=l\336H=I\242\245\274f\367o<M\353\210\275`\261\262;\016\372\010\274b\237\'\275\367&T=\362\027\203\275R\347W=>\357\226\275bt\357<(#\237<\037\333\r=8r\003>\261\037\315=d9;>\033 \304\274\215\342\325==\226\323=\241\300\353\274\242\324\204\275\211\031\332=\224\035\223\274.\245\350\275\3712\313=\030\367C\275\025\316\264=R<\010>\214\247\232<Q\000\235\2757\264\200<\205\022t\274\213~O=\227\227\341\275x2\277<\276\027\335<\333j\201\275\220\217\205=\017\3619\274\024\341F\275\361\004\226\275\242\370#>Ng\342\274\007\276\275\275\231\005\003=\305\026\216\275w*)\275O3\322\275\327\306\374<S\311\034\275\216K\t\275\307l\232=\256\253\370=\211?/\275R\001\244;\2678\\<\205\202\333\275\177\360H\275\321S\217=n\375\306\272^\253\332=E\205\236\275\257q\224=\210\222\341<+\367\373=\362k\204\2750\346\027<\265_\n\276\370\250\232\274\264\232\341=\371\300\006>\374I\270\274\267\274\326=\3657\021=\033V4\275\241\320$=s\215\307=\240X\210=Hf\262=f\201\303=\256\217\027<\026[\207<c\n\r=\301*b=\255\263\037\275\001\275\021>\353ae\275\242\001l=\030\3469\275X\265k\275\263\263\177\275\020\037\211=\223uq<\002\215\032=\030\336~=\225\255\030<\223\246\000\275\255\312\023\276\201\205v=\343\326\034\275\030\203\377<\267s\">C\233\335\273\277\3426\2753lW\274.%\n>2BY\274S\312\001=\273k\017=\203\312\207;\201\t\301\273\275\021K\274t\300\324<\034M\253<x3Y\275.\212\306\2755\033>=\333`\313=2\020\320<\337\352?<r\277\250=4i\261=\177\340\'\275\312]\322\275A\032\002>\031%\206<\324\370_=\375Z\307\274\007\374\264<\023\2120;k\304x=\034\267\203\274\217CN=\330\203\344=*\037\266<\t.\036=\265\266\032<\034\267*\275\332\351!=\324Nw=,\037\371<o\246\316=\013\325\272=K\257\235\275\230K\247=\357\375`\274&\274\304\275V\347e\275\020P\004<\247Jj=\225M\256<\264+2<w5v\275pKL\275\2134\277\275B^\205=\333\t\036\273\353\'\001>RJ\364<\000\272\245<?\374|=\013\263+=4\277\260=\333]v=\237hB=\036\300o\275|\336\222=\325\253.\274=\300?=\262O1\275\212\344\325=b+\334\275\030\326\335\274\326\\\243<\322\324\311:[d\270=S5J=\r\nT<\322l\t;\246\343\361\274\313\017\201=\265KH=j1\010\275;\022\212\273_\r\352=v,\021\276\310\375\304=\001\221\003\275+\340f\275\256\007\002\274\366\251%\275\203\0017\275\177Y\225\275\223\310g\275\324\317F=\324\031\037\275\247J\240\275\305w\340\275R\231\275=\237\254\200<~\205\216\275\333\275/=>\344\'=<\256\226<L\271\322\274\353.+\275\301\276#>o\362*=q\311\256\274\235KQ\273\036\311\316\274\254\344\233\275\300\330o;\003=\226=\343\2744=\330P\263\275\362\002\010=\330\316\253\275\020\030\016\275\363\303h=\356\026}\275\243\375\305=k\247\303=\3051\023\275e@\231\274\"\331\231=2\353\300=\223\253\\\275?\234S\2741\037\306\275\302\307\001<\223U\202\275R&\200\274\356\205l;,\246\230\275\272d\033\275\365k\316\275m{\216\274u|\200<\352:\317\274@\263\017:\223}#<\204_\340=I\336}<B\021\212=`w\025=\207m/=\337\2407=\r\202\014\275\252%\270\274\256\334\022>p\237*\274!\207\206\275\304\004\203<\211X\261=\344\000\331<\317\000\271\275w\220\224<\260D\311\274\315\210\212\275\354l\243;\276\232K\274\\\361\325<\362t\r\275\\\300s=\031\316\312<V\000\224=\312\261[\275\323@h\2752\212\033=\270wa\275\232\261\371\2741\272|\274\203\317\316\274\333,\245\275/X\327=l\331S=uap\275\027$z\275\241G\213\275fiE=\204\316\273\275\036\205s\273}\233\317\275\322\272\202=\010\345\244<\341<\214=\224\250\242;\250\357)=}\373J\275\246\370\263=,l\234=\371Jl=\314R\024\275\367\222\\\274j\271\201\274\325\234\376\272d\036^<\345\375\246=^\243_\275x(\025\275j\262\243\274\251\024\212\273\0020\235\274{\324\232\275~\211\215\275\270+\224=\035\232{\274\202W\214=\317\314\241\274\210u\324\274\263t\304\275\206\364\310\274\261Oi\275\234W\333\275\274\360 <\327\220\257\274\216\222\230=vJ\274\275+\275,=\020}\272<T\017\003=\336Wk\275\236\207\222<\320\003\210=\250\230\214\2752\374\212\275\223\305J\275G\037\315\273\217xO=\216Q`=0\363z\274\321\300\030=\346\237)\274\030\323\350=\272\267\311\274&\231+\275<T\327=2\'\240\274\270\312\274=o\370\211=\213\202\005=E\022\246=\355\256\234=u\335\272\275y\254O\2758]\260\272\004\031\307<\255\026\251<*O\323<\342\337\241=M\311\336<\024\327\324\275*\020p=\361\\\356<H<\230\275 \000\3019\032\370\242<\224\217\263<$\302\211<&\352^\275\033:\030>\246\261\372\274\005J[\2759\364\013>\210\330\226=w\221\026=x\255\270;\222e\307:\363g\212\275\340\377\016<\316\204\253\275\002\301\246=\377\r1\2752x\346\273\332\304\243=\327\366P=f(\231\275\264\244w;\020]\"=\006\354k<O\273*\275`\302\234=\003#\302=\304\340\270=\236\244z=W\022\251=\257\223\266=\316V\214=l\304c=\263Z\321\275\350Y\223\275\226\270%<\035\315\032\275\262\2316<\240Lf=\227j\242\275\335h\251\275[\326S=\331\233p=1:T=\312\2463\274\037`\214=~V\026\275\357y\203=\3240\337\274\271i\267<k\035\265\274\022~Z=]\\\344\274\341\247\244\273S`\"\275\n\" =x1%=\300\200\310\274\205\354?<\026\201\200<)3\221=\335\345t\274 \250\203=C\244\037:\351^\216\275\244\205M\275\361TE\275\177\240\201=%\026w:-(\214<\372`\230=bQ\244=`\347S\2750h\242=\024\005\223\275\207\rI=}\241\222=R\311\277<\372W\203=n\227\274\274Q\221\022\2759\217\346\274E\031G=\275\341\323;b\022\004=P\377(\275q\014\220=\265(8\275\277\221^=\253\230\214;Ab\360<W\026\222\275\037\020\202=\364\207\230\275 \352\224\275\325t\204\275\314\263j=3\234\004\273=\251\177=]\177\212=iVT\275\317\rG=\224\306m\275\336\345\337<\272\272\373=\215\201\323=d\362A=|X\243:l\350\316<3X\201<\243=[\275\312\004q=-\227\300\275\234\265z=\330G?\274\334r9=D\254\205<=^N\275\261\211\034\275\252H\260<\t\337\351=H\226\006\2753C-\275\024\213\347=2\313v\275K\036\200<\373B+\275\020\3117<D;\300=\321\203E=&_t=Z!\215=\214bM\274\223\233R=p\252e=6Iq<$\207c<\317\365\320<n\213;\272\322\346Q=.q?\275k\270\377=\215\323\221=\005\250\226\274-5b=\203\330q<J\270<\274\024\302\206\274\036\340\202\2757_\215\273s\305:=Q_\220<\264\355\265;l\251\331:\312\365%\275UjO\275r\277\205\274\246\246J<\002\270\n=\221\3156<@>%\2740\203\033>3\270\246\273h\"\020=\357\345\325=\224\344\231=\2628\207=\240\336\365=.\311\301=\22325\275\034\367\346=N\340r\275\346\363\002>rf >?\272\362<O\206\304<\344JH=\030\360\330\274\344/\354:\335\311W=\237\026g\275G\206\274=\333\364\263=2\204\256=\271\233~=\324w\214\273\364\216\227=\0370\321\275v\3338=\231\"\373\273\t!/\274\340\022\275\275\236!\274=%\n\001\275\340~\212\275\203\367m=\305\275\340<\016\365O\2756 \220\275\255H\321=\334\211\242\275+\301\322\274a\215B\275ml\257\274\002Z\256\274\357`s;\266\263J=\301<\305\274\216zR\275\246\'\r=\"3\201\275\236\273\330<\336\221\366\272\333\"3=?\321\346\2751\325\247=\375]4\275bI\261\275\214\030g\275\312n\263=\306\223\240\275b\364\351\273\234aS=\352]\357\273\001I\304=\374\363\027>\2511\361\274\030k\251=@\302f\270\313\346\265=\3573f\275i\236@;v\212\002\275\305\"\214=\275\271\251\273tg?\275\037\241H\275\237\301\004<OD\203\27584\223\275RUi=\235&u\275F\370\225\2753\277\236<R\232\021\275+Rh\274R\231\215=WO\232\275\221\214@=\236\'\355;\202PH=\344\264\355<G\330\177\272\335\375\231\274\373\346\006=\256!\213=-\005\376\274\355B\223=\030\032x\2749p\370<\013(\362:l#g\275\006I\236<2*l\275s\243\035\275y\313Z\275\004\264\254\2758F\214\275@F\367\274\333$V=\353\373\000=\376o\";W?W=\331\201\211;o\231]\275\334\2134=\007\300\226\275\377\023\226=\217cb=j\231\307<\334\362*<\014\231\n\2758j\227\275\210\223\223<\244}d\275\257O\035=\000\351J\275\357\205\203=\261l\255<\305\266A=F\352\027=\377\213u=\334-\203\274\266\361(:\240\213J=9k;\275:\245\220=\337~_;w\252\257=\366\016\344<\244\340\021\275$\017\352=\232)\001\275\002\246\256\275|ct\275\221.\306\274s:\216=\001E-=*\226\367<bA\330<\237\215\347;\367\331\261\275!{\372<:^3=\330\352\354<\316\3164<\326\2750=\270\260\247\275\022=]=\254\007\241<\347\257.\275\302b\343<!\005v=\207\227\017<\204\034\027\274\323\315A\275r\244.<U\262\212=D\2508;\021\275\205\275\260\377;=\275\177\010=\256\363\230=_\372<\275cd\300=\006\236<\275\220\366\000\275R/\255\275\001\342@<K\"\227=\017\310N=Oz\217\275\251N\232\274\303\250\017=\323~\004\273\364\250\302\274\343l\304\275\200\321\276\274\016\315\265<YN\324;*\221\013\275\364\200o\273E\361\271=\261\315\351;h!\247\274w\275w\275\200oK=\000\326\360<4\371]\275\272\271$\275\202\024G\274Y\313Y= \302\000\271I\363\205\275\266\371\317:R\335\221\274\336\222\231=pQU=\033\017\207<\224\313\213\274D\331F=\300zy\2753\014\202;$\002(\274t\320\210\275\366\353\302\275\254\020\\\275\275\266\202\275\357\024\207=s\373\340\275\036\222Z\275!\003\275\273\260\337(\275) \325=\341g\255\275h\366\3028\276O\225=N\343\\=\376A\312=\177\222\300\275\316\316E<\234\350m=\220\370\272\275Ple<\220\034\270=\317\303\275\275;3\253\275\224\202(=\354\021.=\305\202\023\275\250\324I\275\237\235\253<q\275\362=\025\201\216\274\212?4\275\305\2349\275\200t\230:\t\023\340;/\2354\273\3660\214=\341X\341<\326\354\347;K\235\361<\241\377\037\275$U\022\275\013\027\276<<v\213=R\025\235\273B\037\215\274E\332\340<\033\207d=L\303-=\246\313\260\274\320uz=\341\276B<\366\217\246=\010\255\301\274@\032\002>\320\340\037\275w\316\246\275\371\3569\275\025\003l=\315\365\001\276QT\025>\2777\006\276+\311e=\366\231\230\275zP\214\275\\\233\217=$0\243=ab\356=\215\'\216\275~=\214=\352h\261=p\205%=\342]D=J\341\035=\037M\255=r\013F\275D8u=\210\037\026>L\261\231=\244W\301< ce=Q\371\324\275\371\207U\2752\232\336=+\333\013>\361m!\275\030\224J>\224\333\352\275Em\234=0\017\327\275!\230\230\275\305)\372:\267*\215=\247\354j\275\'\207\331\273\026\350\314\275R\371\034>\242\264\327\274\240\304\224\275\206\224\004>\305\215\006>\337V\032=\021\215\002<\225\"Q;\335\257\315\274\024\002\373=\234b\244\275\251\031\326;\006o\220;\250m\303=h\365\255=\254k\345:8\232\220\272%\335\242\275Y\220\233\275\267\016u\275<\225C=k\r#=\276-\026\275u\366\227\275g\255)\275\004M=\275\255=l\275\231$i\275\306\244\362<\240n\231<\261x\367\274\264\220V=\002&q\275\233\211\033\275\261p\256\275\317w\362\274\351\216)\275\317\241\244\275\221s\034\275N\277B=\231\033\017=\304x\236;\222\357\255\273\240\227\217<\335\007\230;>\022\232=T\317\032\275\037\310X=\344c\243\275\337\"Z\274\r\020\236<\231\245\225\275\267x\251\275\216\\\207\274\3334\'<\342\357\306=\260\n\351\275\353\033\231\275\206\221\202=\253\200\263=&\376H<\305\330\214\275\320\247\246;\025@\003\275x1\321\274\250j\214=\370\203r=B\345\213\275,\330\202\275\336\244\234=zv!\275\220\211o\275C\260\311\275\213G\203=\366\217\262\274\367\244\033\2750\241\265\2750\255I\2754!\022\275\033\350\254\275<%\212\274d8\241\275g\367\020\275&Dg=\300\305\210\274\357\342\330=\343\300\223\274[I-=\305\244\356=\360\033t\275\254%\244=l\202P=\261\035`=\010\231\362<\314\305\240<\243\261\263\275\'!F\275\270i$=\017\240\201\274w\302J;\277\250\036=\36052\275\271\243\277\275\006I1;~\366\211=\036R\225<\'l8=\372\021\311\275\017[i=\343\210\346\273\354\021\351\275t5\271\274\017\253W\275\3525\366\272q\002\277=f\224\301=#\351m\275\215\241\025\275\021\341~\275\370\313v\275\363\323\203\275#?\005=\023\"\022\275H\361\213\273{\245\212=\313\n\214=w\331\253<\2058b=\267\334A\275{F\270<L]\356\274\254\027\254=\211p\311=!\205\007=\254\026\262=}\036A\275\031\213Z=\032q\355<\207CQ\275\241\253\242<\342\220\204=\201\247\302\275\230\320O=f{G\275$iM\275~)\327\274\000f\272\266\371\036\256\275\3467\302=l\203\327<V\267\226\275\020W\323<`\257\244\274\033\255b=Y\324B=\204*p=\0216\225\275?W(\275\3744\226<\274\330x\275u\210\021\273\302\017c=]\234.\275\214\346G=\007\366`=\321\341\226\2750k\211\274/Te=,\226\004\275\232\360|=\322\022\224=\021e\037\275Z\272\024>\t\362\272\274\237:g\274\000D\240=2\246\353<\0375\271<\2721\230\275s~_\275\277\247X\275\277\216,=8g}\274#S:<\305\'-\275\276\277b\274\211u\372<$\320\250=\332\346\256<\213\326~\274\231\247\223=\353\341Q\275\246;\215=d\220\203\272\373\311B\274<Ls<v\373\250\274\212/\272=]\275\366\275Z~\250\275\312\237\215\275\330\020\304\274\362g\t=\032\266\254\275\014\321c\275do%<\312\217\030=&5\222;y\254&\275]\300&\275\336/\237\274B\243b=5\237g=g\356\3339\263\316\355\273G\362\333<Bm\367\274\235\245\001=b\311e=\324\350x=\202W\350\274\371W$\275\304\003\373<\320+\177\274 \263 \275\247\rb;2\210n=\271a\331\274\306/`\275\216\306\031<8\236\206\275R\022:=\364\3720\274ad\003\275\260\213{=+\376:=\372\260[\275\330\302\022<\314\033\212\275\251\216\301<$[\306<\257ZL;\335\304\003=\327v\270\275\005f\027<\237\260\027\275\377cK<\204~\243=H\352$\275=\232J\274\275.\031=\222\376\260=\327\353\207\275\311\t7\2745\303\177=\216\177\205\275\'\245\267;ZE*<9`\214;L\272~= \366\254\273\251\203\375<\276\237\240=T\026==\037\271\227\275\301L`\275L\333\"\275[\233\247=\r\334\227<\202\251s;<fZ<\306\\m\275g\371E\275\231\033\374\274?\275t\275\236\312\207=\233~y\275-\006\214\274\236\007\335\275\262]\315\275V\312\271\274\240\373\210\275\002a\341\274u%\017=\376\221\031\275B\204\306\273\225O\2609\333\271\221=\306\332\262\273\330\\\221\275\330\265\207<=\315i\275\252\255t\275?\355\236\2749\356B\275\361\324\222<\307F\220\275(f-\274\323\215q=,\365Q\273\032\345s\275.\315\037=\030&\031\275\210\236\217=\274p\257\275\r\201\244=w\013f\273z\211\021\274>\002N;\230\321s<2L\204\275\233\252\264=\200/\367<\231\272\030=\241\240\254=\230\267\206=\311\237\221\275\031\353\237<0\236\221\275/\256r\274i=\003=\213/\027\275\253\220\254\274\206f\032=r\213\214\275\202b\207=\206s\320\274E \211\275\335\303\325;\210m\255\275.$\241\275D\230\201\275~\236\374\273B\210\006;\242\227\377<\375\025~\274(\334g\272\023\372t=~\250\250=`\026\201=\352\002\354\273$m\243\274\321sX\275\231\326f\274\321\361r\275\2047\016\275xA\207\274\232\270\r=cB\020=\236\"\025>\346\205\177<\266#J\275y\232\253\273#j\256=1\253\365\273\330:/;\364\277\326\274\234g\372<C\034\247\275\233y1>\024w\356=\265K\236=\022\345\006\275\033\002\355<\021\031\236=\240\304\016\275\007\254n\274d\237L\275H\322\263\275 \021\324\274\264f\300<e`\233\274>\3507;\261\306\276\275\006\037|\275\302P\030\276\311\354\222=Q5\023<\231\376\220=\361-\010<n\\\007\275\315\340\235\275L\330\232=Xv\223=\256\371\005\275\220\217r=<\313\321<\353d\342=\210\317\267\275\373\254\376<6\210\026\275\003\016\373<+\355\240\273\004o\370<w\266\310\274\224\266\237=g\016\220< \035\205=c\236\t>f\311y<M\230|\275@H\263=\262M\023\275\n\271\340\272\233\333H>~\241\266=\007\317\000>#\214\250;E\327n\275\270>:\275c\\\306<\254#W<\014I\016=\034\247\240\275\356\204\333\273\374\343O\2753\007\304\275\306,\336=\216Im<qs\023>)Qa=j\367\366;\247}\241=\211\306\317\275\251\n\311\274\363b1\275j\224\t<\303\336\336\274\226gs\274\331\256\251=q\222|<\243\001\221=L@\230\274K\270k\275\304\213\244<7\360\t>\272\240\341=1)\314=\370cH>\202G\000\275\264\262e;\371\205\312\275\336G\213\272\311\036%\275\2741\033=:\226\256;\006\266\275=\177\342h\275\036r\214=\241N\267\275\031q\005\276N\352L;\242\313\004>9$\235<\353\212\223;\205=\005\275|\373\210=\205\r\330=7n\243=\342cL=\210$\235=\225\2728>B\205i=\356\234\"=0hR=\325\206s\275M=\327=$2\224\275\233S\252\275\363\241\206<\352\322\037\275\251\007\240<\204\275N\275\277K\311\273\005\347\240=\301\273\236<*;u\275\272\237/>VS\026=\034jI=d\214\264\274\340o\005=\343\306\256<\257\006\036\275I\354@\275\376A\327\274\330\023\303\275\305\204\225=\337-8=~\016\344<\277\360\237\275Y>*=\212\031&>\034\335\270<\322h\253\275\310\263\351;\022\036\235\275a\031\310\275\362\034\253\275\273\320\\\274tc\241=\354\374q=\337\332\316\275~\231G=L\'\363\275nG!\276\236\310H\272\264\360\241=\275w\243\274\236\021S\275\333j_\275\307\214B=\244\206\203=\003C5>\316\377\337\274a\254\037=_\006\302=4\320\035=\341A\330:\340\374\210\275O\257\357\275C\004\373=0#\206=\252a\207\275#D`\275,#\270=\323\271\\=\374?\255\275\2441\312<\254\020z\274\350\250\313\274\211\315\005\275\346\360X>\013a\217<8O\276\272N(X<\203\221\030\275\233\212\265\275\227wR=\355N7=\313!\271=\222\322\003\2758z\245=\264t\325\274\375Y\207\275P\307\212=h\362\232=\000b\007=\364\315\251=[\332\273=2\332\347=\010i\375\274\326(\277\274|\341:\275\274w\304=\214\255\205=\031\324\254<\342\347\256=\324p\202\275\010\313\345;\376\356\220\274\241\364\355\275\002\2532\275vX#>\260\242n=\347\332\326=\244N\254<o<.;&\000\226=\"\244\022=SxF\275\304\336`=\033\205z=\032\2421=\313N\334=\345\204\365\275a\224\013=\256\237J=\200\263\256\275\247\2248<\202\035\236=\354A\006>\336\332W=\226\303\257\274\274\246\037=\342\022\271<\3350\205\275\006\000\021=\222\227\306=5\345\003=\3544\215=\330\364\337\271\227\363\"\27483\201=\226\022\007\274\353\223\247=7y\222\275\335\237\240=9\372}=.@\317=?\305H=\224:\225\275\321o\211\275\024\030r=\021N\035\275\n\2336=\3319 \275n\231\255<R\371\002\273\336\000\241=F\227\311<F\211\364\274J\216\353<\037\263\302\274:>\030\274\232\034\234<?5\361\275\310\344m\274\253\027\200=2\231;\274\203\2408\275\216\311J\275L\017\202=HU\215=-T\210\275\363\023C\275\036\202\315=\243\361\212<3\027\216\274\347\037\255<E\213\220\275\252k!<\231f\304\274h\037\303\270\276:\214=\345\251:=\257+\367\275]\234x=D\247\225<mj\242=\0335@=\343\037\272\274u\354?<)\243\337\274\267\355\233\274P\177\021\275\341\212\272;\200\203\'\275dN\323\274\323\325\346\274\\\322{=\353o\344<\353\256\247<Oc\210\275:\007o=YI\235=&\242B=1E_\275)\272\350<\276D\257;\325\331\244=rV\217\275\215\025|<\257\000\334\275\322l\253\273`\377k\275\256\273\317=\346]*\275$m\336=\346q\222\275\0260\021\275!\030\214=\n\006m<\2437\332<K\351\236=\304\232\206\2744\311\216<\313\200&\275@\013\350\274^\374\242=\277\311\321\2745\031\334<\210\017^\275\222\310M=\365\002\026=\222U\265;\315\312e\275X*\240<\367\374j=K]\002=\316\0025<\001\207\314=\037/1\2757\346\232=!\014\006<\310\232W\275\031\203\250\275\336\207\227=\236\230\026=m\225>\274v\324\220=\336\001\217=r\2636\275i\305h\275(E\225=\310\243M=n\002\335\275:\242?=\300\311,\274\350\266\224<p\006\271\275\"\210\254\275L\'\215=4qz\273\342\357\214=\374O\205<\000\023\r=\316Z\263=\336tt<\230,\202=\302\366O=\200\313\254\275\311\014\331\274\211\250\253<\253x0=j\323\213\275\272\265\342\275d*\021\274\376&\343\274\203\':\275\320\032\035<Mm\017\275\3401\235<vu3=s\227\230\275)\357\022=\235\355\276\275cQ\215\275\355\367.=M\201\223\275cP\234=\217p\263\273\300K\334<\303p\025\2740\212\231:\250\356H\274\214\306C<`\357u\275\251#D=\002\013\274=\222\235{=\237\230\005\273\334\317R\275\310\222,\275#\006\246\275X\263R=\202T\340<`\243-\271\n&l\275&H\024=\201\271\261\275\333\321\006\275\317\203K\275\305\037)=\360\014\304\273\277\302a\275\031\277\344<\304\275\203\275G\264\277=\213l\340=\033\347j\275<\004\262<(\250\365:9\352\203=\002\250\225\275\321C\243\274i|\224\274\273\331p=\243LZ\275\320\226\3208{\322\210;\355\035\002\275\360\245\220<\332\026/\275\207\025t<\272\256\022\275\236yB\275\270ae=\021cg=\010\017\023=\243\003-=\3263\323;\326\023\236\274o\240\271=k\245d=pi\201\273(\344\207=3\013\005\275\245L\226\275\006`u\274X_\024\274\240}2<}\177\021=C\377\247\275\312\276\010\275\313{\210\275#\374\237<\210q<\275\311<\213<f&5\275\227\251\373\272x\266\267\274\"\261Y\274\"\372}\275\003\353\237\274!\307c\274&Z\267\274\3559\211=\322\315\210=\021\016\265\275p\235\243\275*\235\346<\273S\245:hyC=F\343\217\275-H\241\273\202\321\235\271\367\342H\2752\016`<cP\264=\355}4\274N%V=\241\324\342\273EBi=\\\024\t=B\200%\275\371\273\r\274\3123\211=\233\232\224=\r\310\231=\247A\332<\0377 \274\013F!=6\371\\<mPo=9\t\267\275\335-\360\274\302zs\272\007Y\274\273\376A\335\274\230Ue<\206\207\206=\321\260y=\360 \374\274I\210\302\274\372\014\260=\3734<\275es\026\275S\252\236=\315\354e=\272|\353=\224X\023<g\026\r\275Gi\200\275H\326\366\273\263\377$=t`l<\306\276\001\274\206*\360=\3448\250\273\363\320\366<\211^g<\245\263\\=u1\315\274\265\207u=\206B\227=\030n#=|\305\232\275\322(\216<\257 \227<\344f\272\275\016\320z\275\217\240k=aY<=\365\340\007=c\266\023\275\325\034~=\330\220\000\275\361\322\345\274s\'f\275\256\353\267\275\027\nz=\325\343\013\275]\264@=c j=\3551\024\274\363j\314=\37294=g\340\204=\256\301\267\274z\251\223\2746\005\035=\217\327\262\275s$t<\203\331\027\275v\242\345=6sn<\2308\236=\3171y=+\036\347;\275\200\010=M\363M\274P\221d=\215a\253;h\334\304<&\355\240<Y\314\301\275\362\024f<S\331\233\275\345q[\275\214\327P=\300/\260\273\307\031\207=\336\021\201<\306]\203=\010\317\233=\261\261\344\273\202\215o=`\"\324=\260\310\037\271\211\371\253\275\21047=.\351\305<\205\002\326\274\177\014/<u\304\374\274\225\302\313\275\320F\365\274\341\2773\275\273\347\260\274j\253v<\326\032\217\275j\235==U\331\221=\217\330\206<6oq\275\313\3334=\304\243\017\275\021\224`\274\322\337\210=\270X\207\275\366\002\302=\\\374\323\275\325\307\272\274\033;\252=\215\340\003=\332\234\240\275\312\234V=]s\241<\006\3224\275\251\244}\275\200m\233\275\\\330\260=\265\025(<\317\363\351\274\177\036Q\275\022\211\035=\034[\234\275\252\211\007\275\211\314\232\275\255\201=<0F\021\275h\006Y\275\375\022\032=A\252z\2759\007\246=r\303?:\216\210\256\275#\241\240\274\2548\252\275 \273\327\275}\034\031\275/\216#\275\220--\274\352\352\002=\273[\253\274\201=\017=\025\036==\260\214\270\275\310$4\275.bA\275(\314\247\274{km=,z\023\275\203\\\376\275zX\237\274\372\220[=\214p \274\361\271\254\274m\242V<\206R\224\274x4\223\274c\241\315=\343\307\017=lQV\274X\257\3059V\037\217\275}\230l=\200\350\221\273\274\0260\275z\223_\275\356\256.\275\311\337\243\275\001\3616<\310\252\026=\036\3656=\">m=\314\374\263\275 \340\327< n\353<\006V\300<\211\251\037\275\265\236\317=\352\200\251\275\342\350\025=GN\262<uQW\275\252T\317\275\236\240\026=\026$\004\276\337\034\264\275\300\261\214\275\000\324L;Y\315\244\275C\247U\275\254\022\212\274\211Y\201\275\273\211\264\275\215}\277\2743\372\034\275\031Y\271\273^`j\275\034\022\252<\006\345\213\275,\240\014\274\'\206\362<\371c+<\006\327b=\343\377w<\030,\235<n:\265=\006\336\221\274\"c\256\273\352\267\242\274OM\251=U\254\222\273y\331B=\305t\311\274X\274\000<\227\317\311<\271C\032\275<\254\300;\317\217\267\275\371\345\'=\354!8\274\r%\027;o\344\324=6\003Z\275$\277\326=06\027=\203\226\244\275\351m*\275\265\251\275\274\t9\211\275\225\236@\275\334\260>=\033uh\275\347\342\220\274\0201.\275\302\016[=\341\357\030\275\337k5\275\004\374\214\275Dsq\275.\217[\274P\034\247=\301\3573=\234uM<p\222G\275\\\224\203=I\251\215\274x\246\267<\324\310:\275\013B$<UP\001=a~w=\177yI<\271\rf\275]\'\234=\007\240\371;\371%]\2750$\357\275\2511%<t\327O=\375q1\275\327\370\211\275\344B\177\275\251\261\367<52\314=\236Hb=\311J\246\275\010\024\036>\007\t\024;\317\217\312\274\251\313%=t4\003\275\235\272\016>\364\2572=K5$\274m\027\242\275\302\ns</\331\333<&\036\205\274\266\251\257=\372C\217\274\227\270\232<\220bU=\330qq\273\341\367\242\275\030\247\256\273\263\217\264\274R\017Z=\\8\375;\250G\014=\022\312\n\273&\374\247=[\374\353=\221\033#\276p\344\177=\3322.\274<\251Y<\205\314k=\203g\263=\277\017\240\275\007\326==G\360\263=\355\022\263<\350\334\221=\256\032$<^\271\227\273\201#\275=\016\003\244\275\242\246\270\273k\344;<\375\233i\275U\3522<\350\213\032<\274)\312=\'Y#\275\367e\263\274\220\321\265:\006b\354=\"+u\275k\322$=\310\335\214\2759\327\266<\325\351\004=\2077X=]\321<=\364\274A\275\244k\247<%h\327\275\211\034\364<\205\323\256\275\357r|\275\345\307\201\275$\330\211<*\267.=M\250\237\274\227\305\210=\213\247l\275\336\010Y=\376*\217\275\217h\363:\324\226\216\273M\331\243\275\265\234\333\275roP\275\231w\273\274\226\373\244\2759\301\204\275\27003<\023\024\203<\007\371\265<\013\227\021=h\361\207\275\\.\017<\\ \253;\201z#\275\247\324\236\275\350,\223=\253\271\266<\354\371A\275&\3338\274\n\t\251\274D\250\032=.\275\223\273#\240\372;\225\355\275\275\221\022\t\275\020\227\235=\344\t\003\274\341\025\321\275%\313\267=\350\241\025\275a\333\244\275n=@=\200\336\200\274J\203\002=[\315\226\274\211\314\036=*\301\353<\2361Y=\376Hg<`Pa=\266\323\n=f\017\033\275(.\007\275\0010\010\276\231?\246\275\026\022\005;(}8\275\252L\227\275\030\207m=\024\031\240=u.\205=\204M\r\275iZD=\376\016<\275\272\237F=)\306.>\245\177j\275\r\222\355=t\201m=o\200\010\274\303\2718\275\300,O\273\224\307\263\275\246Ka=\250\267o=\321\225x\274Xk\000=\333\354\263:\300\334\005=\205w\211=\202s\316\275\361\"\321;\342\251\006\275q]\031;\327!!>D\327\240=\344\320\277\275\334pe<\014\320/=\341\013\031\275\2424*\275~\0242=[\312p\275\177\225\247\274\232G\026\274yK\232\275j(z9^\254\235\274EHV=\363\205D\275\207\030\275\275\253U\033\275\240\333\263=\256F\272\275\210\017\023\275\256\335(=\336\253\310\275\214\336\321<\021v\200\275\321C\365\275\367!\322=tV1=\257\006,\273\007\3603\275\277\235\242<.\022\227\2755\n\217=\260\036\350=;\356\235=\241e\010\275\333F\353\275\236\331\214;k?B>\016\370\332<=\014\032>\226\307\353=\\F\321<\273\206\264\2745 x\275\231t&>w\035\231\274\264%\334\275RF\207=\325O\274;C\002\312\275H\257c<\301\320\251\272\374{\261<\365\000\034>{V\036=\237\266\317=\037\221\226\274\303T\007=\307\006\355<1\342\320\275x\2322:\013\311V\275\014\252q\275\001\r\276=\335\371\355<mNG=\275\351\210=RU\235=\030\255\222\274\263n\240\2754\264.>s\211e<\375\260\201\272\264\250\r\275\361\205\370=\206;\346<A\251\215\275x\\\322\275\220\335=\274x\217\353\275\356*\373<\030\204\013\275\361)\350\273/\265\355=\344\257\363=\256\252T\275\353\014\027>\337\366|=9\243\334\274\342\031\262<\267%\014>\254RM\275\265\222\353\274\2673\007\276}\230G; \220r=\036\312\036>s\307\312=\362\247\311\275P\256\345\275N\216\245\275l\362@\2753 #\275\372\206\251=.h5>Y[\255=\305\341$\275\242\335>\275\233\311V=z\302\276\274\256!\275<\341\'\203\274\322\232\377=\313\336\336\275\\l\204=\316},\274\275z\010=\025U==KB;\275\3063&=6\307\257=vQ\213=\212\360\000=I`E\275N\216\257<\253T\214=\031\035?\275\215\371q=YD\022>\274\300+\274&\033\304;\255\026\207=\036Y\267\275\032\330\010\276b\256,=\266\037\322=\360\217n\274\244_/=\277\231[=\000\'\330;\017y\023\275\307)\021>H!\376<\310&(\273\355\375\203\274\335z6=\274G\234\273\343\365\036\275\360T\323=G!\301=rD\343\275n\005\005\276\273\337h=,lY=\254J\302;\rU\3529\021t\222=\243N\243=\"\364\213=\203\346\023\275\333\006<\275}\360=\275#\017\241\273\325\0313\275u\001\007=\315\362\245\275L\223}\275\377\376\206=\221]+>`*\245=SN\233\275\217\360\367<\306\267\216=\327\020I\275\273\362\243\275\nC\264=\223O\034\274?\332\'\276\0003\240=\310L\352;\266\214\342<\235\263\002=w\325l\275\317u\220\275\016\026\235<><\336\272Zx\"=rO\261\274\276\261\\\274v\020\246\275\020\032\307=\366\254\313\275\234\213u\273\232G\267=\320v\202\275\201\3249=\312\351%\274\305J\254\275i7W=W\316\235=\010\272#\275\277;\202=\"\003\365=tr+=n\264\204<$<\007\275\364R!\273?m\347\275\377\003\276=\037-m=\210D\375;P\231\374\275\327G\360=\363\277.=\014\330\000=W]\220=\004\366\305<\375\301T\275m\344\337;\262\224\247\275\033\246\334=Fz\306\274Fw\206=\367(.\275b\271\341\274M\335\253<\025\313*\275\2318\203</\231R\274\336\353\033=b\235\343\275\272\022Q=i\214\251<\345\001\206\274\2636\314<\315\'\345<\240\270\"\275*\337\202=\341\303\230\274\240\003\324<e\022\317\275Qi\326\275\221&v\274J\0357\275\027\337+<OH\360\274\334\271X\275\325\207\206=\005\310<\2756\307k<\030X\233<\345\002\312\275\365\335~=\231Y\336\274\037\204*=\024f\031\275\333H\202\2757\203\336\2748\021\267\275\376\002\351\275\356\307\000\275\010)T\275\"`\216;\263\371\207\275\027\311-\275\303@\217\274R\007\301\274\321\347\246=\017t\354<\265\266\360=\010W\272=}v\274<\3242\000=\247\177\245<1$\306\273\333\363\034\2750\\\366\274\356\'\321\275\342\244\341\273F\321~=\202V0\276\346\354\327\275\277\302$=\274\351M\275\357\311*=\337Y\n=%\324\221=\345b\344;\341&k\275\334\352\255<\2346\301\275\221KW=+\024v<\352\025\200=tS9\275\261\317N\275\210PA\2751\215=\275\366\243\005\275\302\025\203\274\345\362\007<\374\326t<\352j\210=5$\313<\226H\265=\362\227\234;\253\245\231\275\362\'\r<\004\324i\274\027\231\322<\226\226\\\275\311>\033\275\235\304\267=m\222>\275\325\266\213<x\250\263\274B\000\340\274\030f-<S\352\303=\335\350\206\274o\030\217\275\263&\311\275N\007\236\275%6\037=*\010\032\274\366\0170\275\304F\241\273)\222o\273\177z8\275R\331\241=`\007\373\274I\250\246\275\230\2626=\337]\022\275\215\245p\275N\234\300=\017`\226\274\344\027\324<k\326\212=\027\357\007=\006\337\224\274\302\357\364<\261i!=\rt\344\275\021\024\260\273\375\032q=\266\363\021\274\314R3=\332\t\006=\353\371\205\274nrT\275\362\220|\275\347\0228\274\000D\315<\344iw=\314:\270\274<PU=\201\310\016\275\236\343\022\275\210\314\327<\361\017\\=\231\001\030\275dS/=\001]T=gG\203<\010w\002\275\270J*\275:I\200\275\277\212\313\274\227\261\017\275\3440\245\275l\264\035=\333\375\260\273\tEI=J\233\261\274\366d\034=\262\246\257<Q\360I\275-\331\202\274{\024\030=H\376:=\277\364\243=\000 \271;\347<\004=\236\351C=\002O\213\275\020\205G\275c\201\037=G3]\275\026\271$\274[\023#=:O\006=\244\003|=\263\311\223=\311i\244;\315\306];\374\254\245=\034\214\322\273\03417\275M\306f\274{h\215\275\377\203\036=\242\250\217=\330\335\226=\320\254\013=;\306\210\274b\332Z\275X\255\360\274\333\036S=t\235\023\275\261\3571=\001\217\250=\372\001Z=\347BL\275)A\204=q\004\020=\360\302\026\275\006\337\211\275]\017#=\373\031\222\274U\343X=\245\305t\275\374?\277\275\327\032C=\365\344\">G\301\206<\310L\365<\361\0043\275Y$\352\274~\023D\275\273\0206>\022N5<\223\005\031=i\354\314\274:\013\335=\221]\n>c\370B=Z6U=\361C\207<\351\3476\275.\267a\275x>\016\2754\373\025>\211\t\257\274\016.\261\275\030\264\006=\027\004\024>\222\030\356\274\013\206\311<\263a\201\274Z\242\207\275\315/U\274\322}\324<I\233\242\274\033\027\032\275\302\'\034>f8^=YyV\273 \234z=]@\301\274\223\215\"<\314c\025=\222q\023=\312\t\254;2(\023;\\n\034\275\206 \267=\354\2549\275\027\0269>\036\234P\275[E\031\275\2468\317<\007\352\004=@[\251=\344\"\266=7w\212=\233]\306<+\222d=\272\010;=|a\205<\211t\216=)\242\370=\373\373*=6\256\270\275^\270\332\274\247\302\333=}\350\306=:W\366=v\324V\275\260\364B=\300I\222<\023L\337=\374G\t>\212\360C\2756@\274;S\250\371=dk{\275\233K\225=\342\020\341\274\261\037\n\276\320\347\000>gs\t>\362\033S\273\257\034\241<\277\334\340<\216q\311<`\371\214\275\002\251|\274\323\234\315=V\200\231\275\340\000\220<@\202\342<\031\2019=\205A\\\275&\240\205\275IT\235<i\002\250\275\000T\212\275~\210\335=JB\221\274!lf=\236*\205=F6P\274\275\242\304<\2753\267\274\212%\344<\r)-\275{\321\256\2744]\311<\233p\310;\374\244J\273\030(\332=zlg\274R\277|=\017\213\013>\251\021D\275\354\230\010\275\024\r\3459#s+>\003\235\031\274c\211\243<\205E\303:,\366n\275v\364\030>[\360h=7\320\202=\323\010K\275:I\327:&\366l\275\310\335\022=\315\302E\275*!\322;\226\033,\275\336\304\246\275\233\261\205;\243\367\217<\364b\007=\370\274$=\245(\216=\016\271\'\275\224v\206=T\025\331\272\214\021\272\274(9J\274\327\354e\275\020\204\010\275\265S\004=!\317W<\256\235[=\372-\212<RU\020=N\037\322\274~\223\243<\024`$\275\326*\360\273\307\230\267\274\0204\241=nNZ\275sPY\275s\347\365<\360\261<<n\250>=\213\331,\275\353\337c=\020@\211=\316\177\335\273e\370\262<C\3463=\277\350S\275\205*\216=X\312\263\274S\322R=\360d\217=\317\375\021=N\263\007\275\241\225\202\275 \007T<<\302\244=\242&+=CT\'\274\253\261\037\275\265\034~\275\303\262N\275\303_#=\016\316O=\345p\266\274\347\261{=\316\327\237\274\372w\353\274\342\200\031\274\327\236\237=\275\007\246=\262H@\275\0021\272=\247DO=}\3126\275J\016X<qX\345<E\360\224\275\227\344\032<\310u\240<$\037M\274Gex<P\003\323=\274\310)\275\3260\323\274\244\375\222\274%\375\022\274U\234)=\222w&\275\216R1<`~\210\273\030\310\212\275\322e!\275-_m\275A\007s=D\2444\275\374\226\273\273\366?K=\t\327V=\243\255\347\274\227\314\225\275($c9\300\237C\275W\302\020\274\322\337\024=\272\3300<j\036\335;\235\226\203=\032a\001\275\024\222\256\274A\n\264=\035\242\246\275qa\205\275w\376R=\305\232\262=r\332w\275C\212\351\274\276N\214\271\3518\372\273\367\n\232\275N$\017=j7\006\274q~p;9kg\275\311\322\025=\240\263\254=\260\316U=1d!\275\300\201\272<{\177\026\275\312u\207=\236K\023=\312\345i\275c\\l\274\230C\035\275d\252U\275\336/\223\275\316ZA=\312z\203=p\234\221\273\312\245p\275O\357o\274\254\304\330<\276\200\337\274\354\006\224\275\216\311\022=\344\321\234\273y\223A=T\202X=\377:\303\275o)q<\032iS\275\325\274\225:`\2339=m\013\217\275\244\007\201=\376\321\'\2751\224\341\275>\252\021\275\325\022R\2758$\340\274\345C!\275\304\213\250\275\213\340P=\370=\207=\250w\t\275\201J\'=~\327&<\317^\271;\025\005\031=\026\027L\274\256\202\211<\034\253\273\274\216\213k\275\207\000\034=\315-\275<R\343\003\275\224*\005\275u\317e\274$\246\r\275\244\374\241=&l\202=\215\203\304;\201\272\211=\264\322\312=\373\006\217\274IZ\372<ru\013\275\004\253Y\273\376\230\022=&\3457\275\344\215\312=\337\367i=M\315s<\217x\306\275\013h%\274Y\347\n\275\237\020:=h\026\247;\323\265=\275\377+\033<.\353e\275\313\255\231\274\262\255X>\202.\274=\031\203\261=\313\2012=\217\357\205<\200\270\007\275Z\010\377\274\315\321)=2\014\232=c\n\257\275\236%\327=U[\357\274\207\260\233\275\304\026\020=\014\356\t<5u\301=\3626B\274F\314\240<\305T%>\367\231;\274\203\010\032=\277\265\211=@\266\217=\314\374\r\275\210\351\335;YUt=\272\215\215=\275\035]=\261\020h\274\353\240\321\275\363L\031\275L\276\001>\021o\214=\360\333:\275\252e\030>\267\202\304\275\341\021L=\022C\221\274\275\n_=\351\210\364<\233\315D=\002K\205<`\345T\275\221\251\354\274\035R\204=\352\364\300\275\236\212[<\373\212\265=\354r\204=\004\372\001>n\324\n=\240\314\235<\242\261\030=$sV=\352\365\247\275\033#\211\273\r\212\241<\206\r\021=(\256\343=S_\277\274\311v\023<\225\326\025=!\272Q=+\260d=~4\312<\021\332\212\275\004\234\277\273\340\343f\275\212-\347<[\234\377<\242\225\362\275\313e\025<P\205\357\271`+\207\273\333\235D\275\237\252O\275\202\326\002=\305\254\021=\273\304z\275\2146\255=\225\363\234=T,o\275H>\007\272|\255@:\320\240w\275 \362\200\275\371\237t=2`}=\262\374\217<\265\257\262\274\ni\237\275\016\353\032=*0\371\274\355z\211\274~B\311\275\212\201[\275s\231y=\212`d=\346\261\213\275:\212\261\275\220\356U=\271\210\033<[\035k<\246\354\352<X#\276\274\222P\233=,Ay=\000\375\225\275\236\265,=\221\251\243=\021\321\224\274\204/\213=\363\224p=\221\300U\275S7\031\275LG\235\275\201\320P\275\203\223J\274\005\277\032=,]\030<{\240\304\275\030o}<\200v\311<\360\217v=\350\303\371\275dr\254\275Yv\301\275\353\342\314=\303\3525<U\327\355\274k\254\213<\352\\\212\2754\227\314<\306\244+<\256~\336<\267\023\331<\361(\200=\353\241\336\275\201\344\200\274\001\036\340\275\236s\350=,\210\324\274\024#n\275{\013\241\275q\367\221\274/\r\244\274\027\006\211\275\200\323\242\275\177\317\204\275\020\002h=\001\006X\274/\216\246\274)\356d=\256\n\241=\345L\304\275\343(\301=a\336\177\275\372n!\275`X\357\274\n\003X=w\243\250\275\261c^=\375\2709=\036\335\245\274\240\3762\275\320v\251=\352\216\253\274@\206\325\274\\D>\275\025\250\203\275\253\342\006=\224\303 <\330vy;\271\371\264\275\301\206\231;`\000R=&\240\266\274F\251K=\340\334\202\274E\006S=8\316\337\274\370Y+={\273\023=\325\023\251=\375\364]<T\234\007=*S\321\275>\257\230\275x\271\024<c1\274<\211\034r\275\273\022\262<:\233\217:Q#w=X\304\270\275\003#\017\274\216\332\304\274\345f\312\273/\211\t\275q\2540\275\274f5=}\221^\275\362\203\307\273tA\253=\306\341\206:\000\344\306<\232\034\223=\230ld=\002%\366<\204\210I\275\253b\321\274~\362\315<\274\346\036\275R\302\310\274\"\307-\275\014\240e=\315\304=\273\000\222\325\275\263\277\227\275g\227\003=\002\272f=\270\253\026;N\252\332<@\004Q\275  g;\262\220\217=\021\305=\275K\035\253\275/\030\357<5\214\332<\377&\304=\016_\363=5\237\027\274\241\245\204=\002\314E=\310\2718=}\336\307<\343zo\273x\t\032\274\2365\332\275p\3036\274\220\335\247\275\013\232\220=\227\301\237=k7\207=\271\t1<#\326\206=\211\342\230\275lTX\275[C|\275\273)J\2759\323\267=:\004a=\022x\355\274]\315,\275\341Z^;\311\306\264=B\006\t>\204o\177\275_,\035\275h/\252=yo\220\275\034\266\241=\264\027\001=\035\224\r\275\226Y\030\275 \016\253<\363\347\374<g\"\317=o\323\t\275\0228\236\275\213\321\203\275{\240\021\275\032\267u=2R\r=/h\212=N[,\274\347\002\025\275%\327n\274=\002\037=k\337\250\274\246\261K\275\346\3352\275\327\334\370\274z\014-\275\336\214\263<\350\343g\272\316\024\304\274P\255]\275M\014\204=\254\014\241\275\357G\016\2751l\213</\304t=9\214\'\275_\0035;\027\032\025\275\004h\201<H<\244\275\374\271+\274\351?\213=9\030\271=\302\315n\273r\300\213=\025H\251=\034o\010=\342\256]=@\255\203=\307\034S=]\022q\275\272(\001<\203B\307<\330\215\255\274-\360\037=\316B*=\223M\256\274\355p\234\275\035\226\346\274\006\234\270<\030\242`\275z\006\304\275\n\341\242\273F\260\220\275\213*\202\275_{L\275\n&w\275\020\007\024=HI&\275\023\004\236\275o))=\014\201\236\275\0076[\275X\005\027\274\262\'\215=8Y\033\275*\235\240\274x(\200\274o\350\362\274\250\354\255\275\212\035\242\274\320\230z=\000C\370\274D}\001\275\246\335\237\275#\034\350\272=\365\230\275E\242\215\275o[\266\2758`\257\273\321\277\342<\t&V\275\344\362\"\275\271!|=Vs];\r\336\227\275\361\036\027\275\205\261V\275\261\014\013\276\356(\325<\210r\306=\325\013\227\275\324\240|=i\262\236=c\377P\275\210_\275\275i>\342=\245n\020\275\316\353l=\233\030\351\274\216\321G\274H\373W\275\001\356\204\275\365T\263\275\353\\I<\253@_\275sY\021<qN\266\274r\251\031\2759\211\200\275\215\263 \2758N0\274t\256\001>/\257R=I{9=#\217\340\275\3122\326<\307\367\307<\177\372\234=!?\276<L\316\374\274\303\341\270\275\204\267\272<\235\032\362<\276\315\300=\276\206\320;V\306b<s\376\327=%W]\275\314\320\343<\030\3472>\226#\314=\004]\n=c\204\021=\361\333?\2756\036\373=S\2045\275@|P<\010\210\033\275T\234\036\275\254\275\r\273\360\306c<suO\274-\2630>\365\006\200\274K\'\r\272\264\267\253<\"\025\311;\341=c\275Ok\264<\260+\341\275\203Ka=\341\032\201\275\2002\302<\0256Q=\223\007>=\224N\325\274\022\223\252=\277V\301\2739)\203\275Xn\004>i\020\016>j-R\274\352)\323<I~\262\274\007\247\037=\2625K\275\362\336\017;\254\274Z=\262\2572=\344`\213\2750.\222\2745\237\004>J\302)\274\207M\022=q\307(\275\211!\274\275`\245\002\276\335\031\020\275|\ng>\t\\\032>zW#;\nI\001>!\324\232=\341\263\247\275h\313=<`P\003>|=\224=\302G\234\275\235\216u=\323\277\t=\317\020\304\274)\206\030>\343\224\235=P\236\336=\2374\211<\323+\242=\335\376\236<\341Pq\275\022d\202\274M!\247\275\242\037\003>ymB=\357\366\014<\331\231\024>\361\347\225\275\200}#=\245B\035\276Kf\033\276\036\000F=\216\330\022>`\177\253=|\202\215\274\334\3473>\007\300\341\275\370\223\221\273Q_\276<){k=%\2079\2750\007\326<\013\315/=\2458{=h\222\243\275\314\032\315=\307)\203\274\344\225\235<d\332G;t\017\016>\024`\322=\252,\001>\\\344Q\2756\366)>p\313A=\252\014\346:\366j\261=\232\322<<_\357\225\274\304$\260=\234\026\304=\264[\261=\313\025?=\241\314.>\032\367\271=$\360\353\274\221\255\246<\317n\370\274\237Y\022=\352\247\326\274\352R\203\275\003\363\t\276\202\265\201=\366-\261<\361\254\336<\316\273\365\275\346\227\246\275\351\310a\275H\327&\275\363\305:\273\306\367\306=\257\364\014=\"\233\353\274\234W\340;`6\337\2748t\302=\364n%;\033\252\263\2754s3=_Y\232=\307\222T\275\005\3539=\342\242C\274\',\351=\r\307\014\276\242\272\342\274\357u\230\275]R\235\274=S\220\275\'\327Z\274\2446\204\275\216\247)\274\354\006\021\276\3104s\275\253\r\316=\361\260\n\275K\352\247=\021\271\275=\343\025\000=\257\222\213;\366\223\315=\342\034\227\274\210\227\277;\312\210\256<\371,C=\031\016\243=\240\213Y\275E<\314=\256;\303=G\262\343:\377N%\275\254\325h=\360j\316=\n\300\033=u\221\032>O\270*=\336\200\275\274\337\262\215\275\2218\330=\377\200\372=\334\264\331<_\203c\275O7.>T\025!=W I\275\345h\226=\234\013\260=\001<\030>\344Q\027\276\340\373\307<\323B\035=z\307`=fg\020<\205\034\262<\203\347\177\275\271\325\263=\035\330\305=#\022\363=\3663\304\275\254\375\264\275\004\n\270<\374\256\306<\203\236\231=v3\251;l\244\346=\311\230#=\345\026\362=\275i\366\274\344\221&\275\326\316\220=!T\033>m\320\212\275w\372\356\274\027\321\263=\000\352\236\275\037c#\275ff\207\272l\241\301\274i\322\214\275`\232\031\275\210\235\315\274H,\240=\027\256$\2751\307\300=V\321d=pk9\275|0\315\275\243\235\263=/\372\256=\350\35659S\021p=\272%\240=^+\241\275\006#y\275\021\222\226=\237\203\201=\261bG\2749\2146=ij\214=\n\375\201=>w\337<U\340\211=\30248=R!\024\274\003\353\331<-\010\355\275\035\345\222\275\376 \316<;F\\=\360\210\201;\347\'\237\273\366\247\242<\314\261\330\274\316\033\224=\342/\037\274\272T-<\312\356\357:\264\267\23091/I;\t\030J\275\202{\247\2755N\001<\267\242\246=J\362\003=!\250P\274\354\034}=-\2733\275\227QY;\035\007^=J\273\237\275\034O\r\275\337\203\"\275\341\356\361<P\025\275<@\313\366\274\371)z\275\361\213\357\274\355\234\302<\370\005\021\274\250\362\347\274\274\231*=Lj\222\275\243\300\233=\206\334\020=\270\030\245\274\272\0019=Og\261<\272\200`=r\337\205\274\255\304\276=\206\316{=\001b\016\276\010\364l=HB\311\274\372\3056<\005\2620\275\033\261+\275\020$U\275\223E\315\274\2009\207\275\231\323F=\025\330\'=\272\231\266\275~\205q\275<j\026=\324\266U\275\024\2251;\177\013\351=\222\350\'=\200%\233\275\030T\217=\241\331\234\275\211\025\230\274\234\257\275=\306|\232\275l\372q=\001\312\013\276\320\301\237=~+\023=\341\264\030=\337\361\253\274\307\"\266<\333Y\\=\376\223y;m\201\253=\025\251\302=\260\202z=\354\227X\275q\256\213\273A\2606<\213\217\233\275+\261\013\275\267R,=\345\366)\275\263k,=>\0052=w\371\260\274Y\3701\275\305\n!\275\255\372\207\275\002\274\214\275X\035\340=\366\325v<\256Q\253=\3424\203;u\000\216=\267*\302\273\247\354\237=\224\353\356\274{-\377<\302\330C\275uA,>\004RA\274\n\271\336\275+m\250\275\212\242`=\365\t\014;\343_\212=Ok\273<[\006\220=\277o\025=\365\356\030\275\315H{=\021\227\035=\361\266K<\371\021\251\275\335\223\260\274~\236\207<-Y\271\275f\213\364\273#\0011<u\217\215=\177)\232<\344\005M\275\024D\332<=\326\367\274Q\257\234\275Q\265\310\275\327\005[\275\201\307\224\274r\027\251\275?M\300\275w\266\367<\316\356\272\275\335\316O\274\263\274m=\322\274O\2757\307\275=\030\355\320;\007\222\210\275\0149\234=\206\321\232=\232\305\221\275t^\233;&\225h\275\363a\232=.\000\373\274\'\310\211=\234\023\020=/\305\254<\347\370\274<\357E\267<>?.=\2735\331\275\271\010\224<$\272\255\274?\364q\275\227\235f\275\374\026\323\275\346\034\240<\203\252\254\274/!\252\275\2041p\273\300\025\337=\231\t\025\275\301S\240\275K\353\025\275\010\335g\275\315|~<\037~\t\275\026\250\200\275\337W\331\275\354\301\207=\031f\254\274\234wX\275$\221\245\275\353\216O=\020\371 \275j\263\\\274JO\200\275\276L\316=?\371\344\275M\354$\275)\360\251=\254\366\023\274\274o\220\274\344\210`<\372\372\266\275\247oL\275\344S\000=[\022\244\275\323\351\240\274\246\025\334\272D!\307\275\032#\266=,\003\274<\261\222\301=$N\250;\257\252\236=\025\247\377<\303\341\304\2755k\263\275v\360\370\273VW\371\275:o\246=A\224m\275\254\036\023\275+7\017=\266H:=5\311\026\275U\247\200\275\274\315_<\307\215\n\275\235*\213\275,|\214\273\317C\256=\320\300i\273\373\004Z\275vu\256\274\177\307\217\275\345\213G\274<P!=\240\032\265\274\316\217P\275\200\341\214=\000\351\235\275\302\210\244\274\331\'\236=\251\2655\275Z\036V\273\312\305\310\274\021J\330<!\001\321\273w\222\241\275\024\026\215<\311y\266=t\007a=C\271\223\2756\256\205<x\027\037=\372L\013\275\231\356\227\275Z\342M<\320\253\260=\250\0255\275LC\022=n\321\215\275c\337\"\274\030@u\275\255\255\246=\266Z8=\301t\027=N\346\343=s-!=0\345\'<5\344\214\275\215u\202=\027h\212;\211Y(=\354\272\003\274\026[\257\2756\323\005=K^\326=H\013\265\275\205\313_\275\315\000&=\302n\203\273\332\303\320<Zj\276=\367\232\202\275\t\300U\275\202\207\253=r\221-=}\017\330\274`\3777\275e3\177\275\345\362\225=\001m\026=;]a\275\003F\363<\255\331T=\275\351n=\267\253\014=p8\'=\375\0075\274\232q\013=M.\251\273\267\373B\275(\200\264;7tI=\267\231q\274\377A7=6\001W\275\025\231\036=x%\317=:\227\242\274\004\377\235\275n\027\220<\017\303\206=_\200\263\274\215\034\201=\310\277)=ox9\275B9-<X\212\254=\322DS\2753D\324\275V{\303<\204m\310=\330\235\350<\256\007^\275\330\273\252=J1\263\274\002\r\376:\177\372n=\027\265\365\275\320\226\217;Z./=v\033C\2751l0\2752\275\300=\362Wl\275QS\334=\036@R\275Iw\021=<\0042=g\206\231<[2\334\274\342l\242\274\264\313\201\275n\'\222\275\242\n\002\275\340G\226=\201\020\225\274\226\246N=\321\337\247=\006\245\277<\304\014F\275\316\325==\361\002\205=\257\034\220=\006E\202\275\026N\001\275\302\311:\275\357K!\275\320m.\275\344c\335\274\301\\\034<B\224\222=\264\210\203\275?KM<1\243\276\274\003\330\201=1\271O<h\237\312\274\373\310B=\0318x=z\324\317\275Y\365\016\273\275YL=\306\326l=\361X}\274Id9=\216\377\243\274\304\276\251\273\\\220B=\265\261\254=\217\356M\275\254\350\r<m_z<~c.=\227\370\261=6\236E=>+\264\275\300\237\244=\310\232\031=\326P\223\274\003\026\202=\\\271\005;\342\000\361\274g*\333;8q\255<,0\224=\310ex=v\357\251\275\006\233\024\275K>\311\2750\306\336\273U\256\007=\004]h<\353\212\235=\245\035$\275\035\t\351\275Ixk=\247\315\272=\006\017\001\275\372\320o\275b\036\203=\234\243\240\275\370:*=\253\324\351<\rS\210\275\n\363\020\276\200C(\275!\360*=^J\243<\005\331\250=\3724\305\274\260\326\001\273\352\240!=T.\014=\341\004\026<|M{<\033\330U<\317\256q<R\321t\275\013\016\206<)\231\224\275\277\246C=N\235\316<\177`\232=\351\332{\274\2139\312\275rW\244=I\363\031\275\030\025\000\274\330\256\327\275\177\314\013\275\331Q\276\275\362\313e=\361\330\301<\263\035\203\273z\332\202=\021U\365<:\037\324\274{7\033=[\221\321\274\351\233R=%\202\211<\2626\212\275\221\327\353=\372\273>=\361H\234\274\005\317\201=1\210%\275\317\224\017\275\243\025\266=\223\033\240<\365\334\215=\371/\327\275o\370\307\275;\255\225\275\322@e\275\256\032\220=\277\213x\275\240DS<rL\240\275\n\227{=\372\301\031>\234\304T=\211i\315\275&\354\243\272\206\343\337<<\376d<B\340\004\273\2512\324\274n%\353\2741\263\373\274U\0341=\025\236\241=\322v\"=\273\335)\275\233\374O<0\234\004\275U\025\205=\270]<=\265\277o\275T\235\203=\362^\255=\332\334\300=\026+E\274\254\3569\275\261Q2=3|\236\275(/\215\275C\037\256<P\321\000\276=\316\336=KfP\275\362Pa=c\217\340\272\021\252\263\275L\214\017\274\032SA\275\032\024\254\274\027\262.\275\222\005\205\275\205\253\304=\027;:\274\266\037[\275\211\245\223<\200\323\221=\276\343\355=\270\277#>#\342\'=&\263\372=\337\237\342<\275\234\232\275/\305\301\274z\223}\275N\215\203\274\307\035A\2750T\010\276,z?:(fn=\232\365\215\275\347\313\251\275\316\004\355\275\001\274z;z\003<=A=\"=\207\220r=\321q\033<\254\336:<\316\010\021>u(\264;\300\330\303<\235\303\356=P\275\351;\302\270\320<\236p\232\273`?@<\246\341\321=b\253(\275j\023!=\304\037s=I$\220\275g\266^\275\341\211\231\274\033\017\010>Y.k<\210\341\205<\372\265\034=\024kL\275\340T\223=\364\001\001>\242-~=Zb\016>\340\267\370<\350\003}=[\233_\274\217\331\355\275\242\323j<N\005\250=Iu\376\273\315\036\006\275\361M\316\272\354\266\321\2749\037\224=g\033\245=\203O\331\274D@\006=\354\265\326=\001\252\203;\220\265\301=MM\233=\321\256h\275\336bI=\316\257\205=\226\264\010\275\016\211\215\275\234\243\305=k\007u\275=\371\023\274\273\'\277;y!\207\275m\363\233\274\362\267\372\274<N!\275@\024\2539\352Q\222=6B\273=\214RT\275-\242\274\274\200\341;=\376\372r\273\312\355d\273\347\tf=\\\241+\275\377\004\201<\r\2531;\364\324(=\377pp=\227\234\026\275\203V$=\373i\261<\331\244\304\274\224w\037=\314o\220=\372\026O=gQi\275\270\315\202<\316\001\036=\256)z=d\371\006\275g\375a\275G)\210<\27638\275\013Y\224\275X^v=\232m2=*\307i\275\n\244*<\233\212w=\352\332\204\275\226\253\272<h<K\274\314}/=\313\257-\274\023$g<\217|0=\022\024\031\274\240\372\364\272h\211\252\274\325O\240\275\010<\241=\253\221\212=\2717\024=\347\3401\275;\214\234=I\340\033\275\336\204\025=*XC>\340\301g\275\\{\315=?.\357=\360B\307\274\213\201\207=\267y)\275y&I=Z\326\251\272\022\347\t\275\253(\241=\003N\347<\342\222\356\273\235\210t=\352}/=;\'&=\206\241\"\275\320s\020>?\003\345<\006N\233\275\245\250\201\275=\003:=\321\002\214\275H$\304\275\343\010\364<\301.\230\275\004a\377\272K\266)<\376\206j<\331$\213=aN0\276\371%\226=v\346D\273n|\335<m\221\332<O\367\253\275w\205\016\274\224\242\215\2754\336\353\275a|\247=^1`=\211\317d\275:Y\242\275\032\243\312\274\275\247\276\275\r\203\323<\303ZM=\206\303X=\001+\267=\326\325L<\000\347\304\274\314n\322;\037\250$=K\346\\\275E\346\026\275\343@\224=Z\274\n=\324\323\334=\325]\013=\340\321\225=a\205\251\274\252!w\275\274\314\220<\344\315M<8n\326\274\357\027\211\274\324\375\315=\352|\n=\207Y\351<`s\212<CY\337<\336C\204\275j\213\035>\322\026[\275\313\031\035\274#.J\2753\001.=\2479\273\275\361\236\257<4\016\346\275\374V\224\275\262\303\253<\3656m\275\t#\330\274\272p\214=<\026\203<\033\216\355\274\360&==\313\321\230\275C0W\275]=G>\343\204\252\275\204\274\231=\370T\211<8\177\225\273\014\016\327=7n\005=\220f\274<%xr\274\254~f\275\023\324\331\274\367\031Q\275}\307\367\275\274k6=\372p/\275yE \275n\t\344<^\236x\274|@;\2756\242L=\255 U=XD\253<l\337\246=|v\257\275\214V\373\274\250\233\r=\324\234x\274\202\350\n=0\232\221=#\326\354<i\037`<\210\377\302:\305B\233\275\010\261\023=\313\026\241\273\204pU\273*\223_=c)W=\306\023x=\202\324\343\2744l\232\275\251;\222=U\006\000\276Y\232\275\275\216r\202=\016\377\312=\013k\221\275\253bo\274\223\r\351=\241oH=\361!^\274\370u\200\275/\343\036\275\333\004!\275\303\317\216=,\266\330\274S\0068=\316\017b\273P`\217=G)\006>\312\334j=1\242s=\204\266\016>|\371\003=\315\024\010\276:\"\323; \304F\275\341\277R<\016\n\021\276\033\276\356\275\021!\363\274\0366\247\273\240\336>\275\202\256(=\205o\276\275(\367\212;X\3557\275\376\025\200\275\212\364\204<2\274\204\271\363\365\210<$\247X=gD\263\274\374`\014\273`R\024\275\277\017\242\274%\365\322=k\347\321<\346\201\224;\004\000\211<\360\235\000=@\342\222=\357\226\027=\305)D\2752\370\216\275\325\337\021\275\347\323\247<-\023\265=\350\024X<9\035\004>\366\033\234=\317\227\234=\347\3328\276\022\370\247=\327M\203=c9\252=\363}~=\206\206\213\274\243\300\230=-\302\264\275\260z\005\272.\376b\274\032\353\177\273\263Y\t\275Q\344\276\275\'S\036\275\250\241\301\274G8\341=w=\223=\260[\364\274HMR\275(K\343\274\240:1=\024\032\027>\365z\315\274\270\373\361=I\277\260=h\020\003\274\206w\337\275\036\0271=\340+\214\271\\\002\322=uf\240\275*\324%\274\204\206r\2753\017\272;\217\016\251=\346\346(\274\315G\365\274l\210\332<C%\024=\364\313I;1\335\002\276i\352Y=Mo[\275\221\276^\275\350\264\375=\226\347\016<8$R\275`\260\206\275\240%\023=\\\332\207=\313`\035=\306\236\304:}\267{=\226N\254=\014\376\304<\230ZW\274\345\\Z\275\347\034\312=Z>\253\273\252\357\221=\274V\031\272\3078|<9?\036=y\222\314\274\360\233\213<\341\232+\2744\215\202\275\312\350\240\275\247\205k\275I\317\235\275\347\211E=\026\353\207\275 \323\206\274\347\017\236\2757\257U<\254\037\007=\346\\\r\274\035M\350\275\371kc\275:5\346\275Odk=\352lI=7\321\231\275O\226\246\274\026\n\271=\355.\214<\315k\237\275GW\201\275\016\007l<\344k\265<k\313\243=>\304F\275?\322m=m\003H= \355>\275\244\226X=\363\340\363\274x\365\202\275\232\272<\275\313\035\363\274\031\272>\275\027\316\256=`$\244\275\205{\267=\211\316{=\271-\372\274th\273\275\207\341(\275\000q\221\275\251N\265\274\360s\335\274\264\3334\275Tk\256=3\250\313<\374\373\274\274\245\377\t\272\320\346\207\275?\365X=rY2=\036\214\237;\236%*\275\021:\336\275\007\320\361;\014\013\374<\351\362b=lM\035=x<y\273\320\203\245=\006Tx\275;?;\275\322\373\331\274\342\255\372<f\356\213<N{y\275\304\364\260=\350\337t=\274\306\266=t\304\341<\252>\314\275\3138\r\275?\247\210=;\263\006=\"4\006>\275\3126=\207Vz\274qC1=\221\203\035=\264\227S\275\360i\373<\206\347W=\026\224N\275A\356\000\274W\211\217\273\325\274.\275X\201\374\275\313\2377\275\\?$\272=x\246\275\337\324\371\274\n\307\303=\227\313\200=[\301u=\224\257\250=\354\337\233\2740&\204\275\010A\216<\223\003\200\275e\356\031\275\260?\030\276\211\306\177\274\031K\321<h\212\206=\211\363\n>\350>\313=\242\274\323<\020\360X=\2365\250<mW\304\273\\\030\260:\245\247\333=\374lM=j\031\333=\235\\\030\275\341\2052=\266>9;\243@A=B\375+=!\300\264\275+L\004\274\3305\214=\316\270\272<\201\324\220\273\303^=\274\013\2079\275u\272\223<=$5\275\340[N=\244\247\356<\023\205\223\274\026\"\200=\341\204\352<\3162\204\274|\264\247=R\312\216=\255,\344<\336\020\202=\233U\030\275&] =\353\310o\275~\277\n\275{vM<\014\322\230\275\204\n3=\264c\244=\217NC=m\212\320;M\242F\274\034\330\206=V<\305<\006nM\274\037(|\275\326\316\236\275j^o\275\322M\234\273\267:\231=*\260\217\275\366{F=\010\317\214=!qC\275\272\\\001=^\"\247\275KxN=^\211\371\274\240P9=\217\254\030<.\034)=\202n\010\275!!\004=jJ\007\275\336z\273<\304W\377\273\365\314\314;\361_8\274\'\334\n=%\373\240\275a\024A\275q\263]\275\212\010,\275\004\320\314\274\271\347\247\274\261\347@\275\261\006\020\275\304\006\234\275\356\353e=\002ts=\017\347\243=\351\221\010>\3369/\275\032\363o\274\255\353\304=\356\177-=\035\305,\272o=)>\316\251\377<\343\024=\274\033\331 \275\"f\367=OSm\275<\247\376\274-\217\220<\230\201\207=,\212\003>\264\031\363\274s\205.=w\303\006=\022?\025\275M\200\n\274U\252\335=\341\203\225\274\370\\\250\274\332N\024=\002\246\211\275\241n\344\275\304\322\261<,\276\271<<\321\314=!\326\223\275\273@\350<\243Z\213\275\2373~\275\372\333\277\273\224\345R\275\253R\031\2746Kj\274\352D[\275\210\244\267<\251;\204\274z\'\374\274T\321\200=T!V=\242\355\034>\314u\032\275\355\264\357=\rx\354=(\212\345<p\255\346\275\207\004\303\274S\233\203\275\256\027#\274I\346\001<\361\343\002>Y+{:V\303\254\275\254\023\273=\001\210\367=\251\362z=(\"+\275\024x\001>N)\243\275\037\222P\275\210D\177=\272y\265\275\221\311\007>\242L~\274\313\314\350=\250\337\010>\336\321\014\274R\214_=y/\276=\346\330\322\275+\023f\275\023I6=1\206\310\275\210\377\357=\031\033\327;76\211\274\177\207\026\2750\010G=\221\213\020=%x\360\272\334\365\213\275=R\243<\222*\331<7\265\320\274K_\204\275\360D\247\275\r\376\026=\272\262O\2750\235\266=\305-\214<*\247\365\275\310\027\271=\\\246\230\275\314\340\312\275B\206Z\275\363I\201=\246\246\325\275\032%\006=,\320\r\275\312\3277\275\353\366V\2757\313\226\2756\223#\275cD\241\275\370^\221\275\031\211\001<z\272n;\242\251\263=K\241\347<f+e\275\023\360\246\275\350\032X=]\323\010<v\3309\275\246o\271\275\313y\031\275\360\2206<\252\225\323=^\r\275\274S\n\r=\275\316\\\275\331\271\204=\201\234\227\274\331m =\335\313\241\275\317*\246\274\301}\240\275\036\016\223=\232#\325\274\220\020\227\275\336\031\245\275g\t\206=\332\312\250\273\346\244e\273\307*\375\274\257M\252\275\332\342n=\'5J=X\230/\274\232M\354;\317z\241=\312\335\362<As.=\212K\333\274F\027\356<8VW\275&<\212\274\220\262d\275\034[\347\273\340T\004;\240{w=\226\353r=\005Oy\275\033$\177\275\267 \234\275\375\311\010\274\0044\202\275(\366\244\275\3200\374\274l\370!\274\252DJ\275\2619\224\275\257\222\324<\005=\003<H\332\000<\266\007\036=\321\300\301\272\013u;\275\017\355w\275k\253\244<g\317\340\273\236\037\027\275s\236 =X\237\210\275\"w\246\275\r/\333\274S\257\237\275\243\377\204<:\314!\274\211\034\233\275\326\224R\275\033\020\224\274\332\312\373\274\010p]\275g\232;\274\254\276@=\230\035\364\274~\207\302\275\230\212\306=\337ur<\013\204\261\275\364\317\320:\313P\207\273f^\212=\2226\304=L(\020=p\034\2629ZI\261<\"\330p\275s/==\205\243r\274\312\343\353<t\343\242\274\322\222\264<x\021t\275\362\004E\275\262\002B=\':U\275d\025\020<\006\233\030\275VJF=\224\014\2139\377\024\234\273@w\030\275\023\310\024\275\274K\216\274\214\213W\274\202C.=\363\226\360<W\312\020;4\324x\2753\224\246\2753\003\234=N\3726\274\230\310\264=\204\366\317\274\332\335\271=Y\330`\275\215\304\326\275>\037\227\275\341\231\267\275/K2\275\253W\346<\006\313\301<\204uc\274\'\377\213=a\264\317\274Q@\310\273\025\276\365\273F\005\321;x/H=\213v\020\2751j\256\2756\321\240\274\002;B=\356_Z\274\351\n\031<\342\023\251\274B\030\260\274\304\326a=\223K\034\275VDC\274\256\322\221\275\0008\033\274h\236\036=I9\263=f\371\'\2753\375U\275_\0252\274h\230\026=c\200\220<y\031\206;\313\230n\275s\nF\275\266\336\256=\204d/=\202\361\200=FW\016\275f\276\203<\371\221\017<u\t\213<R\214\357\275\311Wu\275\315,\252\275\340\016G=\266\351\331<?u\006=U\372\014\275?=\260\274\243\345M=\3173\016\275h_\000\274\212\366\002\275=A\\=\270\267\216<2\261h\275\332)\351<\253\341\272;\270\220f\275~X\033\275\224\3734=\366\321\315\275\001\233\201\275\237\204\221<\243i\210<:+O=\222\261\003\275}\305\276\274\331\355\266\274w\322e\275\316\242n=\344\241N\274\r\263\211\275\301\344/:G#\302\2742^\321\274\313d\265<+\006e\275T\274\343<<\332\027=^\326\002\274PT\200=.K[=,YU=\004x\302={\344\354<\234\271L<\353\035\371=\023\357\331\274\270|d<|3?\2750+\007\276\021.\220=j\344\201\275\304\330T\275\3104>\274\307\264J=\007\025\207\2728\2536\275\301\272\331\275Ii\227=\206\237\214=Xl+=\2771\210\275\370\267\314<\234\356\321=oq@\274\320?w=\331\364\n<\252$\370<}\214\242< Rc;A\325}\275u\n\221\275\346\363b\275\373\301\354=\301\365\004\276\312\263\021<\013\371\343;\354\240\212\275\227\206\335\274\025\366\n>bl:\275\247W\255\275\007H\355\275/\253\001=\345J\274=Bc\344=z4L\274s`\214\274\374\252\373=t\025V=\274f\334\274\344CP\276\273\034&<l\312\313=\017\323\254=\266+\225=\376\236\211\275\374\274\223<\232O\215<\257\346Y\275\"\333q=\324\037\200\275\367K2>\306\034\033\274$n\232\274D\206\203=\361\260\223\275\007\"`=N\177\036<X\365\261=>\270$\275\267\366\201<\202%\200\275Zr\377;*\273v\275$\303@\274\377~\250\2758bI=S\376\257\275\312\033?=\247\320\340<D\305\267<\334\317\313\273D48=$\253\301\274\326\023\235\275%!\010;\207\246\207=\216\017\223=\332\244q\274\326\036\246<\376v\311=\327\336\010\274\037\3450\275\032n\"\273\371\260x=\203\231\000\274\225\301\031;\2432\202=\220\2140<\310\'\210\275\034\267[=\324\250\277\274f\233\221\275wR(=\300\364\263<\360\261\266=\014\r\372\274\r/\252\273\224\265W=\254\370T=\354\246\032=,\314\n\275\266\232\221=\344\3358\275O\256A<\207\203\013=\354d\306<e\231\260\275\246R1=\207\341\276\275\373y.\273@rT\2727_\017=\245\344{\275\252\257g\274\024\255\240=\246\313/\275=<H=\321\347\306<\2600\320\275\236\276Y\275\320\365\202\275\357a\230<\213\216K=(Pg\275ug\323=\315\232\\=\263\201\246\275\022`\216\275!\205\351=@\026x\274\341\352\r\275;\225\006\274W\251\207<\272\244\245\275\232z\361\274g\215\017=\030&W<\306\353>=\237\252\301\275\304\321\245\2750\212:<\377\336U\274\276\372\220=y\350D<\275\306~\275\264\\\236\275\032\223,\275\213!\370;\031\216\217<\3059\354\275\357\017\312\275\351-\234\274\211\034E\275qr\217=\271+\377\275\rt\312\274\000*\004\274\311\273\301=\275\223\305\274\206+\343<\271\204\031\273\272?\312=\206\004\317\275\021\365\003\275\275\240\030\275\361\347@<\360\221Q=N\275m\275\257a\364\274U\363\251\275wm\262\275\345d/=?\330\223\274\017\227p=\265OU\274d\224\034\275\221D\260=\264i$;-\020\346\275u\231\036=\232_\214\275\371\343\346\275\200q\216;\253\362\372=\310\0002\275f\357\340\274|\321\223=d\327\312\275n-\214=\351eb\274\311|\002=\307\002@\2757|\032\275\022\004\264=aj\320\275DQ\340\274\021\370\315\274p\250.;#\3348<N\004\261<\377F\215=*\377\001\275Q\277-=j\320.<\225+X\274\316\331G\275\265\214f;]\263\305=m\277\277\274\347\211\000=\355Y\366<D\002E=\307\364\243\274\272\321\215\275e\316X=\264v\364\274\034O\242\275 I\211=^\222>=F\t\205;A\025?\275(\013\243=E\320\226\275<\355\022=\014\251\003\275@\2115<\307\373\340=EP\341=\363\2336<\372\261B=\243\\\264\275\3366\251\274K&\000=\257\267\372=\26225:h\242\231\274]\013\037\275J\352\024=0\314\354\274<d\210\275TY\363=\337X]=\254\025\027\275\221\314S=\353\026F\275\340i-=q\226\354<\3446W=\343\3755=\317\313W=\307\210\271=D{+=\262\374Z\274\031\234,\275\220\253\201\275\330\tw\275\241H\253=\207\243\375<\254\034\270;J$F\275=\236\014=<\307\225=>\254\302=i\210\344<\242\3423\275\217Im=\2722a\275\264m\220=d\367*\275\"\212\007\276\20107\274\372\364\002=\266`\247;\235}\322<e\022Y\274$[6=\344\3623=\024\350.:\007\2313\275\237\3658\274\223\256\221\2754\226\241<\373\366\202\275TQ\233<\203\3274=\243\034\243\273\200S\311\274\256O\300<1\'\361\274(\373\252\275w2\252\275\373\305\232\273\300:\016=\017\273\n\275\002\2032=J\3346\273Wo%<X\346t<*\203c=\373\036\311=\237\216\030\275\005\347[<\345\253\005\275UFY\274\325\024\321;-\003B\275\233\366\217<\256\251\000\275\264O\316\275t\224B<i\345r==\302>\275>@%\275n\357\237<<8\240\275\22196=\006\202\232\275\240\322\177\273C\304\263\274^\nh\275\023\021M\275\242\\\234\275\314&\037\275y\302Z\274\025\010\331<t~\202\274\303\314\\\274l1l=\014\210\346<1\352\255\275U0\253\274\254\327\263<(\216\255\274Q\235\371<\213\016\270<\'\352\217=G)O\274KCs\275\202^\204=\n\225\265=\270,\267;P\275%\274\346K(=\027\366\250\275\177\206;=p\002`=\027\0078\275K\332\207=*\204k=-\323\001=\014\014\243=\221\367,\274\300y\215\275\377\021>=\004\253%\275\253$\247\275K\277W\275-_\246=\325\014\216\275QJ\210<\374L\270<\231\237U\275\273\320\221\275\317\234-<\215A\002=\270.\275\275W\275\022=\2263@\275hj\234\275\235\'\364<~\324\203=;\355\240\275\376-\310<\t\366\203<\306\216\274\274\262\354\223;\n\033\004=\341\366~\275\265\303A\275\252\2019=\216\323\177\274\3223Q<\350\304\224\274\026\257\261=\304\241\022\275\340\235\237\275\031\231\223=\264\356K;\276\216\363=\230\025\030=\004\003\246\275\334\036n\274\234\3429\274\236 \235;h\303\222\275\314\233\035=x\030t=\271\312\347\275F(;\275H\375?\275\344\351J\274\235\372O\275\201\205\350<\225\302d=\036\237\260\274\306\263\005=\316(5\274\236\216\315\274\352\\\024\275\267\\r=\326\2124\275IX\327\274\351&\324:\030l\007=#\242\342\274\220<\335;\n&\\\274\337\275\023\276G\3430=\004\273&<\325AM\275\214\203\220\275-\027Y\275\365\006\276\2757\336%=q\014\227=L\312c=q[\305\274\314\221a\275l\025\257\273\240\255\r<\231\245\275;\366i<=\335n\204\275\016\007\331\275[\337B\275b\0269<\352f\352<\3650C>\246\307H>\257\301\031\276\347\362\213=M\364\361=:\337\232=\230!\023\274\210\270\355\275\342\215\002=\026U1<\332\366>\275\211\0172={\031\275=(\032\306\275hE\247\275tnh\275\226?\241=\372\256.>\036\220)=\335\275\"\275\252\024R==R{=\352&H\275{\272\256=\037\'\334\274W\223\030=\341,,>\222]!\275\344{\377\275\311W\206\274$\331\035\275L%\237=\263\227o\273\374\201\236=\200{4\275V]\021\273\300i\t>\313TP=\270\314\254\275\347\201\246=2\277\r\275\003\302\267=\264\357\337\274B\231\320=\365\224c\275\311\213\306;\317\332\277=^\250\340=\237\000\344=\302\255U\276\226\336\247=\026\357Q=O{\354=VIQ=\346*%=P\177\003>\021\320\304\274\240\335\214\275+U\r\275M\340k=\233\322R>nM\330=\350z\273\275d\336q=-\2603\275\205\003c\275\316gY\275\032\321\202<G\205\240=T\236Q=\262D\205\2755\n\302\275\021\305\\\275\034P\235\274g\334\362<\036\\\324\274gA\r\275\307\217K=\365\355\204=\n\377\200\275\251\013\231\275\030\253B\275_\032\261\275u9\205\275\244s{\275p\364p=\336\224#=DO\351\275\022c\222\274\266\3546\2757\035\344\274\263\374G=\\v\345=\212\321\231\275\316\263W\274\250\313l:\236\220\205\274P\t\226<\326!\271\275j\317O=j\232\211=\272g\271=2\273#=\355^\270\275\336\215[\274Eg\375\275 \036\220\275\350D\004\276\352O~=L\312\202<\217\266\277\274\343\371\223=\344Ts\275\233\002\236\275\304\377\353\27338f=4\331[\274\354lH=\377]\276\274\335\265?\275Z\243\r>\306R\237<\271\350\215<\r\251s\275;J\355\275\341H\225=\030\212\222;\352\316\001<\263\323\224= \201I>\305v\357;|L\362=w\360\306=\303\351\244=Z\300\206=(}\204\275`\\\020\275*\252\322\274\316N\277\275(/:\275\300\273\335=\005\216\242\275a\210I\275\004}6\273\321\204(=\211\020x=L\351\321=\250\002s\273J^\245\274ps\206=\177I\303<(\220\274=%\353Z\275\213\247\206\274tdO=Q\304^=\362\221\235\275\216W\032\274\272\305\016\274hU\246=\366\274\305<~*\r>x\317~\274.\277\337<\024\247\357=\330v\245=q\327y\275\\ ?\275\276?j\274\332\243\351\272E\366\020<}\300\023>[,\003>\234 e<\257\216{=\375\317\376<.\033&\274\371\255\027\276\361_\347<\302I\347=\212\361\307=\240\332k=\362\367\215<\376\340/<\274\360U=\245y\312<`\346\223=X\333\303\272H\337\263=\210\2531=M\246}\274\277/\022>\201y\213\275\327K\036=\022\005\251=\310\240b=\214\265F\2759l\243=&\016N:o;\324=\340\275\211\275?\020==r)\355<)S\275\275 \350\205\275b,u=\353*\303=\327\257\216=\337\236\245<\310\322\216\275\327d&<|h\205=\020\276\341=\037\207\202=\\\321{\275f8c=\315\316F=\215\004\022=\253Re\275\3527\230\275\006\274\024=h\312\005<\330j\023=\366\t\363=$\271\370;r\270\233=\226\312\200\275u\2509=\304\245\033=\341\325\250\275q\213.=\036\'/\274\263\347{<\265\331\346\274\033&\352\274^\354\367;\306\034\245=K6\007\2752\255\243;\361\261\221\275 